{
    "version": "1.0",
    "truncation": null,
    "padding": null,
    "added_tokens": [
      {
        "id": 0,
        "special": true,
        "content": "<|endoftext|>",
        "single_word": false,
        "lstrip": false,
        "rstrip": false,
        "normalized": false
      }
    ],
    "normalizer": {
      "type": "NFKC"
    },
    "pre_tokenizer": {
      "type": "ByteLevel",
      "add_prefix_space": true,
      "trim_offsets": true
    },
    "post_processor": {
      "type": "ByteLevel",
      "add_prefix_space": true,
      "trim_offsets": true
    },
    "decoder": {
      "type": "ByteLevel",
      "add_prefix_space": true,
      "trim_offsets": true
    },
    "model": {
      "type": "BPE",
      "dropout": null,
      "unk_token": null,
      "continuing_subword_prefix": null,
      "end_of_word_suffix": null,
      "vocab": {
        "<|endoftext|>": 0,
        "!": 1,
        "\"": 2,
        "#": 3,
        "$": 4,
        "%": 5,
        "&": 6,
        "'": 7,
        "(": 8,
        ")": 9,
        "*": 10,
        "+": 11,
        ",": 12,
        "-": 13,
        ".": 14,
        "/": 15,
        "0": 16,
        "1": 17,
        "2": 18,
        "3": 19,
        "4": 20,
        "5": 21,
        "6": 22,
        "7": 23,
        "8": 24,
        "9": 25,
        ":": 26,
        ";": 27,
        "<": 28,
        "=": 29,
        ">": 30,
        "?": 31,
        "@": 32,
        "A": 33,
        "B": 34,
        "C": 35,
        "D": 36,
        "E": 37,
        "F": 38,
        "G": 39,
        "H": 40,
        "I": 41,
        "J": 42,
        "K": 43,
        "L": 44,
        "M": 45,
        "N": 46,
        "O": 47,
        "P": 48,
        "Q": 49,
        "R": 50,
        "S": 51,
        "T": 52,
        "U": 53,
        "V": 54,
        "W": 55,
        "X": 56,
        "Y": 57,
        "Z": 58,
        "[": 59,
        "\\": 60,
        "]": 61,
        "^": 62,
        "_": 63,
        "`": 64,
        "a": 65,
        "b": 66,
        "c": 67,
        "d": 68,
        "e": 69,
        "f": 70,
        "g": 71,
        "h": 72,
        "i": 73,
        "j": 74,
        "k": 75,
        "l": 76,
        "m": 77,
        "n": 78,
        "o": 79,
        "p": 80,
        "q": 81,
        "r": 82,
        "s": 83,
        "t": 84,
        "u": 85,
        "v": 86,
        "w": 87,
        "x": 88,
        "y": 89,
        "z": 90,
        "{": 91,
        "|": 92,
        "}": 93,
        "~": 94,
        "¡": 95,
        "¢": 96,
        "£": 97,
        "¤": 98,
        "¥": 99,
        "¦": 100,
        "§": 101,
        "¨": 102,
        "©": 103,
        "ª": 104,
        "«": 105,
        "¬": 106,
        "®": 107,
        "¯": 108,
        "°": 109,
        "±": 110,
        "²": 111,
        "³": 112,
        "´": 113,
        "µ": 114,
        "¶": 115,
        "·": 116,
        "¸": 117,
        "¹": 118,
        "º": 119,
        "»": 120,
        "¼": 121,
        "½": 122,
        "¾": 123,
        "¿": 124,
        "Â": 125,
        "Ã": 126,
        "Ä": 127,
        "Å": 128,
        "Æ": 129,
        "Ç": 130,
        "È": 131,
        "É": 132,
        "Ê": 133,
        "Ë": 134,
        "Ì": 135,
        "Í": 136,
        "Î": 137,
        "Ï": 138,
        "Ð": 139,
        "Ñ": 140,
        "Ò": 141,
        "Ó": 142,
        "Ô": 143,
        "Õ": 144,
        "Ö": 145,
        "×": 146,
        "Ø": 147,
        "Ù": 148,
        "Ú": 149,
        "Û": 150,
        "Ü": 151,
        "Ý": 152,
        "Þ": 153,
        "ß": 154,
        "à": 155,
        "á": 156,
        "â": 157,
        "ã": 158,
        "ä": 159,
        "å": 160,
        "æ": 161,
        "ç": 162,
        "è": 163,
        "é": 164,
        "ê": 165,
        "ë": 166,
        "ì": 167,
        "í": 168,
        "î": 169,
        "ï": 170,
        "ð": 171,
        "ñ": 172,
        "ò": 173,
        "ó": 174,
        "ô": 175,
        "Ċ": 176,
        "Ġ": 177,
        "ġ": 178,
        "Ģ": 179,
        "ģ": 180,
        "Ĥ": 181,
        "ĥ": 182,
        "Ħ": 183,
        "ħ": 184,
        "Ĩ": 185,
        "ĩ": 186,
        "Ī": 187,
        "ī": 188,
        "Ĭ": 189,
        "ĭ": 190,
        "Į": 191,
        "į": 192,
        "İ": 193,
        "ı": 194,
        "Ĳ": 195,
        "ĳ": 196,
        "Ĵ": 197,
        "ĵ": 198,
        "Ķ": 199,
        "ķ": 200,
        "ĸ": 201,
        "Ĺ": 202,
        "ĺ": 203,
        "Ļ": 204,
        "ļ": 205,
        "Ľ": 206,
        "ľ": 207,
        "Ŀ": 208,
        "ŀ": 209,
        "Ł": 210,
        "ł": 211,
        "Ń": 212,
        "Ġt": 213,
        "Ġa": 214,
        "he": 215,
        "in": 216,
        "re": 217,
        "Ġthe": 218,
        "on": 219,
        "er": 220,
        "Ġs": 221,
        "Ġw": 222,
        "at": 223,
        "Ġo": 224,
        "en": 225,
        "Ġc": 226,
        "it": 227,
        "is": 228,
        "an": 229,
        "or": 230,
        "Ġb": 231,
        "es": 232,
        "ed": 233,
        "Ġf": 234,
        "ing": 235,
        "Ġp": 236,
        "ou": 237,
        "Ġan": 238,
        "al": 239,
        "Ġto": 240,
        "ar": 241,
        "Ġm": 242,
        "ĠĊ": 243,
        "Ġin": 244,
        "Ġof": 245,
        "Ġh": 246,
        "Ġd": 247,
        "as": 248,
        "ic": 249,
        "Ġand": 250,
        "âĢ": 251,
        "Ġth": 252,
        "le": 253,
        "om": 254,
        "ion": 255,
        "ll": 256,
        "ent": 257,
        "ĠT": 258,
        "Ġn": 259,
        "Ġl": 260,
        "Ġre": 261,
        "st": 262,
        "ve": 263,
        "Ġe": 264,
        "ly": 265,
        "ro": 266,
        "Ġbe": 267,
        "Ġg": 268,
        "id": 269,
        "ĠI": 270,
        "ut": 271,
        "ĠS": 272,
        "ac": 273,
        "ot": 274,
        "ĠA": 275,
        "Ġthat": 276,
        "Ġon": 277,
        "ay": 278,
        "Ġis": 279,
        "et": 280,
        "im": 281,
        "am": 282,
        "ad": 283,
        "ow": 284,
        "se": 285,
        "ig": 286,
        "Ġfor": 287,
        "âĢĻ": 288,
        "ĠC": 289,
        "ver": 290,
        "ur": 291,
        "ct": 292,
        "ld": 293,
        "Ġu": 294,
        "Ġst": 295,
        "Ġy": 296,
        "ĠM": 297,
        "Ġit": 298,
        "Ġhe": 299,
        "ir": 300,
        "ation": 301,
        "ĠB": 302,
        "ith": 303,
        "Ġwh": 304,
        "ce": 305,
        "ĠThe": 306,
        "ter": 307,
        "ol": 308,
        "Ġwe": 309,
        "il": 310,
        "ĠâĢ": 311,
        "Ġwith": 312,
        "Ġas": 313,
        "ĠP": 314,
        "ch": 315,
        "ill": 316,
        "ĠW": 317,
        "nd": 318,
        "Ġyou": 319,
        "Ġwas": 320,
        "ers": 321,
        "ke": 322,
        "ĠH": 323,
        "Ġcon": 324,
        "Ġde": 325,
        "Ġr": 326,
        "ĠD": 327,
        "if": 328,
        "her": 329,
        "ate": 330,
        "Ġat": 331,
        "ag": 332,
        "ĠR": 333,
        "Ġha": 334,
        "ĠF": 335,
        "Ġse": 336,
        "Ġ1": 337,
        "ore": 338,
        "Ġpro": 339,
        "ul": 340,
        "pp": 341,
        "ment": 342,
        "ri": 343,
        "Ġare": 344,
        "est": 345,
        "us": 346,
        "Ġ2": 347,
        "Ġcom": 348,
        "ist": 349,
        "and": 350,
        "op": 351,
        "ain": 352,
        "Ġ(": 353,
        "ĠN": 354,
        "igh": 355,
        "rom": 356,
        "ort": 357,
        "od": 358,
        "Ġne": 359,
        "um": 360,
        "Ġex": 361,
        "un": 362,
        "ĠG": 363,
        "ĠâĢľ": 364,
        "res": 365,
        "ab": 366,
        "âĢĿ": 367,
        "Ġnot": 368,
        "ĠL": 369,
        "Ġv": 370,
        "ess": 371,
        "Ġhave": 372,
        "ity": 373,
        "em": 374,
        "ould": 375,
        "Ġor": 376,
        "Ġby": 377,
        "th": 378,
        "os": 379,
        "ant": 380,
        "ive": 381,
        "Ġfrom": 382,
        "Ġal": 383,
        "ĠE": 384,
        "el": 385,
        "'s": 386,
        "Ġsu": 387,
        "oc": 388,
        "art": 389,
        "Ġsh": 390,
        "Ġthis": 391,
        "ĠO": 392,
        "nt": 393,
        "qu": 394,
        "ight": 395,
        "pe": 396,
        "ust": 397,
        "Ġ\"": 398,
        "Ġle": 399,
        "ies": 400,
        "ĠJ": 401,
        "end": 402,
        "Ġch": 403,
        "Ġsa": 404,
        "out": 405,
        "Ġab": 406,
        "all": 407,
        "ie": 408,
        "ack": 409,
        "red": 410,
        "00": 411,
        "ally": 412,
        "Ġhas": 413,
        "Ġpl": 414,
        "Ġgo": 415,
        "ard": 416,
        "iv": 417,
        "ome": 418,
        "Ġhis": 419,
        "ap": 420,
        "ost": 421,
        "gh": 422,
        "ear": 423,
        "Ġtr": 424,
        "our": 425,
        "ast": 426,
        "Ġj": 427,
        "ak": 428,
        "ĠU": 429,
        "ud": 430,
        "Ġdo": 431,
        "Ġthey": 432,
        "Ġbut": 433,
        "Ġwor": 434,
        "Ġcan": 435,
        "rou": 436,
        "ge": 437,
        "Ġwill": 438,
        "Ġsaid": 439,
        "Ġwhe": 440,
        "Ġk": 441,
        "ich": 442,
        "Ġall": 443,
        "ok": 444,
        "Ġwho": 445,
        "ide": 446,
        "Ġint": 447,
        "ame": 448,
        "ans": 449,
        "ther": 450,
        "Ġout": 451,
        "ial": 452,
        "Ġtheir": 453,
        "ff": 454,
        "ĠTh": 455,
        "ong": 456,
        "ect": 457,
        "ĠIn": 458,
        "pl": 459,
        "ice": 460,
        "pt": 461,
        "ure": 462,
        "Ġmore": 463,
        "age": 464,
        "one": 465,
        "ions": 466,
        "act": 467,
        "ike": 468,
        "Ġup": 469,
        "Ġme": 470,
        "ous": 471,
        "ĠK": 472,
        "ine": 473,
        "Ġad": 474,
        "Ġabout": 475,
        "ated": 476,
        "ra": 477,
        "ber": 478,
        "Ġone": 479,
        "Ġwere": 480,
        "Ġso": 481,
        "Ġus": 482,
        "og": 483,
        "ime": 484,
        "ĠSt": 485,
        "ep": 486,
        "Ġ20": 487,
        "ia": 488,
        "are": 489,
        "Ġhad": 490,
        "ub": 491,
        "cc": 492,
        "Ġwould": 493,
        "Ġcl": 494,
        "Ġim": 495,
        "Ġwhich": 496,
        "ind": 497,
        "ake": 498,
        "ue": 499,
        "Ġcont": 500,
        "very": 501,
        "iz": 502,
        "Ġag": 503,
        "Ġte": 504,
        "Ġoff": 505,
        "Ġcomp": 506,
        "Ġun": 507,
        "Ġbeen": 508,
        "Ġen": 509,
        "so": 510,
        "per": 511,
        "au": 512,
        "ign": 513,
        "ary": 514,
        "ace": 515,
        "Ġyear": 516,
        "ip": 517,
        "ew": 518,
        "..": 519,
        "Ġlike": 520,
        "ere": 521,
        "ven": 522,
        "ook": 523,
        "Ġinc": 524,
        "ĠIt": 525,
        "ays": 526,
        "Ġman": 527,
        "Ġpe": 528,
        "ry": 529,
        "ose": 530,
        "Ġres": 531,
        "Ġper": 532,
        "ite": 533,
        "able": 534,
        "ass": 535,
        "ord": 536,
        "Ġsp": 537,
        "ire": 538,
        "ĠY": 539,
        "Ġother": 540,
        "mer": 541,
        "Ġ201": 542,
        "Ġsome": 543,
        "ib": 544,
        "ile": 545,
        "ence": 546,
        "ople": 547,
        "ks": 548,
        "ations": 549,
        "Ġthere": 550,
        "ical": 551,
        "Ġover": 552,
        "Ġdis": 553,
        "ress": 554,
        "ult": 555,
        "ĠCh": 556,
        "int": 557,
        "Ġnew": 558,
        "Ġthan": 559,
        "own": 560,
        "Ġalso": 561,
        "Ġar": 562,
        "Ġbec": 563,
        "ount": 564,
        "Ġthem": 565,
        "ance": 566,
        "ru": 567,
        "ough": 568,
        "Ġapp": 569,
        "port": 570,
        "Ġyour": 571,
        "ail": 572,
        "Ġpart": 573,
        "ĠV": 574,
        "Ġwhen": 575,
        "ree": 576,
        "Ġwhat": 577,
        "Ġsc": 578,
        "orm": 579,
        "ond": 580,
        "Ġpeople": 581,
        "fter": 582,
        "Ġ3": 583,
        "ase": 584,
        "Ġqu": 585,
        "av": 586,
        "Ġany": 587,
        "Ġjust": 588,
        "Ġits": 589,
        "ach": 590,
        "Ġtime": 591,
        "Ġkn": 592,
        "ens": 593,
        "Ġrec": 594,
        "lic": 595,
        "reat": 596,
        "Ġif": 597,
        "Ġmy": 598,
        "ĠHe": 599,
        "Ġget": 600,
        "Ġher": 601,
        "Ġ-": 602,
        ".âĢĿ": 603,
        "ian": 604,
        "Ġwork": 605,
        "Ġinto": 606,
        "ound": 607,
        "Ġtw": 608,
        "irst": 609,
        "vel": 610,
        "Ġno": 611,
        "ction": 612,
        "du": 613,
        "ings": 614,
        "ory": 615,
        "ick": 616,
        "ident": 617,
        "ition": 618,
        "Ġour": 619,
        "ors": 620,
        "ob": 621,
        "Ġpre": 622,
        "ove": 623,
        "Ġplay": 624,
        "ang": 625,
        "ink": 626,
        "ause": 627,
        "wn": 628,
        "ade": 629,
        "hing": 630,
        "ates": 631,
        "itt": 632,
        "ark": 633,
        "amp": 634,
        "Ġro": 635,
        "Ġpol": 636,
        "Ġshe": 637,
        "Ġ19": 638,
        "Ġco": 639,
        "vers": 640,
        "Ġafter": 641,
        ",âĢĿ": 642,
        "Ġfirst": 643,
        "Ġcould": 644,
        "ne": 645,
        "Ġhow": 646,
        "ious": 647,
        "Ġacc": 648,
        "nder": 649,
        "ons": 650,
        "'t": 651,
        "ild": 652,
        "aw": 653,
        "Ġhim": 654,
        "Ġpo": 655,
        "ĠWe": 656,
        "Ġonly": 657,
        "Ġfe": 658,
        "ict": 659,
        "Ġatt": 660,
        "hed": 661,
        "ĠBut": 662,
        "Ġpr": 663,
        "Ġtwo": 664,
        "ov": 665,
        "ish": 666,
        "Ġcomm": 667,
        "Ġspe": 668,
        "form": 669,
        "Ġact": 670,
        "we": 671,
        "Ġbl": 672,
        "erv": 673,
        "ĠWh": 674,
        "ĠThis": 675,
        "ft": 676,
        "Ġbet": 677,
        "Ġdec": 678,
        "Ġ4": 679,
        ".\"": 680,
        "ning": 681,
        "ĠâĢĵ": 682,
        "Ġback": 683,
        "te": 684,
        "ces": 685,
        "Ġmost": 686,
        "ĠAnd": 687,
        "ood": 688,
        "ck": 689,
        "Ġam": 690,
        "oy": 691,
        "Ġdid": 692,
        "iff": 693,
        "rough": 694,
        "round": 695,
        "ater": 696,
        "Ġagain": 697,
        "ĠâĢĶ": 698,
        "ual": 699,
        "day": 700,
        "ise": 701,
        "Ġwant": 702,
        "Ġdes": 703,
        "Ġunder": 704,
        "Ġ$": 705,
        "Ġcons": 706,
        "ull": 707,
        "sel": 708,
        "Ġbecause": 709,
        "rit": 710,
        "Ġnow": 711,
        "lud": 712,
        "Ġ5": 713,
        "ents": 714,
        "Ġyears": 715,
        "ublic": 716,
        "man": 717,
        "Ġneed": 718,
        "tern": 719,
        "Ġeven": 720,
        "ec": 721,
        "Ġinv": 722,
        "iss": 723,
        "ĠUn": 724,
        "Ġknow": 725,
        "ĠAs": 726,
        "Ġsee": 727,
        "ments": 728,
        "Ġadd": 729,
        "ced": 730,
        "Ġ[": 731,
        ",\"": 732,
        "old": 733,
        "Ġind": 734,
        "Ġsec": 735,
        "Ġevery": 736,
        "fore": 737,
        "uch": 738,
        "urn": 739,
        "Ġmake": 740,
        "Ġsupp": 741,
        "pect": 742,
        "Ġthese": 743,
        "ĠTr": 744,
        "ock": 745,
        "Ġem": 746,
        "ject": 747,
        "oll": 748,
        "Ġwhere": 749,
        "xt": 750,
        "vern": 751,
        "ational": 752,
        "Ġbu": 753,
        "Ġlook": 754,
        "oss": 755,
        "ump": 756,
        "Ġdon": 757,
        "Ġway": 758,
        "ating": 759,
        "Ġev": 760,
        "Ġright": 761,
        "Ġrem": 762,
        "Ġbeing": 763,
        "Ġmay": 764,
        "lect": 765,
        "ng": 766,
        "ily": 767,
        "Ġmany": 768,
        "row": 769,
        "Ġthen": 770,
        "Ġdiff": 771,
        "iew": 772,
        "ont": 773,
        "Ġrel": 774,
        "Ġdef": 775,
        "ason": 776,
        "Ġcall": 777,
        "Ġthink": 778,
        "les": 779,
        "Ġinclud": 780,
        "ased": 781,
        "ied": 782,
        "meric": 783,
        "aking": 784,
        "Ġreg": 785,
        "Ġimp": 786,
        ").": 787,
        "ited": 788,
        "Ġthrough": 789,
        "rib": 790,
        "ath": 791,
        "Ġsy": 792,
        "The": 793,
        "Ġfl": 794,
        "Ġsay": 795,
        "Ġshould": 796,
        "Ġpres": 797,
        "ower": 798,
        "Ġvery": 799,
        "Ġlast": 800,
        "uring": 801,
        "Ġthose": 802,
        "other": 803,
        "Ġmuch": 804,
        "ities": 805,
        "ific": 806,
        "Ġstate": 807,
        "ative": 808,
        "Ġshow": 809,
        "Ġbr": 810,
        "ĠRe": 811,
        "hen": 812,
        "ty": 813,
        "Ġ200": 814,
        "ĠNew": 815,
        "arg": 816,
        "oth": 817,
        "Ġcount": 818,
        "Ġwell": 819,
        "ell": 820,
        "Ġph": 821,
        "ting": 822,
        "als": 823,
        "Ġdoes": 824,
        "ĠAmeric": 825,
        "arly": 826,
        "Ġown": 827,
        "und": 828,
        "ics": 829,
        "Ġend": 830,
        "Ġdown": 831,
        "Ġuse": 832,
        "Ġbel": 833,
        "--": 834,
        "Ġass": 835,
        "ange": 836,
        "ters": 837,
        "Ġlong": 838,
        "ince": 839,
        "ward": 840,
        "Ġbefore": 841,
        "omet": 842,
        "gr": 843,
        "Ġgovern": 844,
        "Ġmon": 845,
        "Ġstart": 846,
        "ible": 847,
        "Ġreport": 848,
        "Ġke": 849,
        "up": 850,
        "ues": 851,
        "ts": 852,
        "Ġteam": 853,
        "Ġfin": 854,
        "Ġ6": 855,
        "ble": 856,
        "Ġmade": 857,
        "olog": 858,
        "ife": 859,
        "ĠAl": 860,
        "ener": 861,
        "),": 862,
        "Ġsuch": 863,
        "ren": 864,
        "ĠYou": 865,
        "erson": 866,
        "oun": 867,
        "com": 868,
        "ix": 869,
        "Ġsm": 870,
        "Ġgoing": 871,
        "ility": 872,
        "Ġworld": 873,
        "ek": 874,
        "Ġhel": 875,
        "ful": 876,
        "ually": 877,
        "ism": 878,
        "ists": 879,
        "Ġstud": 880,
        "Ġac": 881,
        "tain": 882,
        "Ġgood": 883,
        "...": 884,
        "Ġsub": 885,
        "Ġeff": 886,
        "Ġsur": 887,
        "Ġset": 888,
        "Ġgame": 889,
        "ork": 890,
        "Ġagainst": 891,
        "its": 892,
        "ys": 893,
        "Ġpoint": 894,
        "Ġgu": 895,
        "Ġent": 896,
        "âĢĶ": 897,
        "ars": 898,
        "ĠIf": 899,
        "000": 900,
        "stem": 901,
        "ier": 902,
        "gan": 903,
        "Ġprov": 904,
        "Ġstill": 905,
        "roup": 906,
        "Ġwhile": 907,
        "Ġhelp": 908,
        "illion": 909,
        "Ġlead": 910,
        "Ġmin": 911,
        "ween": 912,
        "ax": 913,
        "Ġob": 914,
        "ank": 915,
        "ms": 916,
        "imes": 917,
        "alk": 918,
        "Ġsays": 919,
        "Ġgr": 920,
        "cy": 921,
        "Ġprodu": 922,
        "Ġinst": 923,
        "Ġstr": 924,
        "Ġinter": 925,
        "Ġsim": 926,
        "io": 927,
        "Ġconf": 928,
        "Ġcol": 929,
        "cess": 930,
        "ĠFor": 931,
        "self": 932,
        "Ġtake": 933,
        "Ġsame": 934,
        "ures": 935,
        "Ġthough": 936,
        "Ġbetween": 937,
        "Ġdiffere": 938,
        "ĠAr": 939,
        "Ġoffic": 940,
        "arch": 941,
        "Ġcr": 942,
        "ool": 943,
        "ution": 944,
        "uss": 945,
        "ollow": 946,
        "ĠDe": 947,
        "hes": 948,
        "land": 949,
        "Ġdisc": 950,
        "ever": 951,
        "Ġop": 952,
        "read": 953,
        "Ġed": 954,
        "air": 955,
        "Ġhigh": 956,
        "ah": 957,
        "ĠAn": 958,
        "Ġnum": 959,
        "Ġsign": 960,
        "Ġlaw": 961,
        "Ġ10": 962,
        "gg": 963,
        "Ġgovernment": 964,
        "way": 965,
        "ner": 966,
        "ĠThey": 967,
        "led": 968,
        "ĠSh": 969,
        "ames": 970,
        "ros": 971,
        "Ġ7": 972,
        "ĠLe": 973,
        "atch": 974,
        "cent": 975,
        "ĠCom": 976,
        "Ġter": 977,
        "any": 978,
        "Ġsomet": 979,
        "hip": 980,
        "velop": 981,
        "Ġtrans": 982,
        "Ġref": 983,
        "Ġrun": 984,
        "ĠIs": 985,
        "Ġins": 986,
        "Ġser": 987,
        "Ġfound": 988,
        "Ġaround": 989,
        "Ġmem": 990,
        "Ġhere": 991,
        "Ġthree": 992,
        "ives": 993,
        "Ġmed": 994,
        "ave": 995,
        "ather": 996,
        "ĠTrump": 997,
        "Ġreal": 998,
        "ĠSe": 999,
        "Ġused": 1000,
        "Ġexp": 1001,
        "ouse": 1002,
        "cept": 1003,
        "ved": 1004,
        "az": 1005,
        "Ġsystem": 1006,
        "oot": 1007,
        "Ġreally": 1008,
        "ving": 1009,
        "Ġmod": 1010,
        "Ġsupport": 1011,
        "cer": 1012,
        "Ġgroup": 1013,
        "ci": 1014,
        "ĠThat": 1015,
        "con": 1016,
        "Ġcour": 1017,
        "ale": 1018,
        "ets": 1019,
        "ĠCl": 1020,
        "Ġpublic": 1021,
        "ins": 1022,
        "Ġret": 1023,
        "Ġhand": 1024,
        "ĠThere": 1025,
        "Ġspec": 1026,
        "ph": 1027,
        "pr": 1028,
        "ying": 1029,
        "Ġ8": 1030,
        "Ġgreat": 1031,
        "Ġsl": 1032,
        "Ġext": 1033,
        "Ġcar": 1034,
        "ense": 1035,
        "Ġ0": 1036,
        "Ġcur": 1037,
        "ton": 1038,
        ".[": 1039,
        "irect": 1040,
        "alth": 1041,
        "Ġfam": 1042,
        "Ġexper": 1043,
        "Ġhapp": 1044,
        "Ġfr": 1045,
        "Ġfact": 1046,
        "Ġwom": 1047,
        "Ġboth": 1048,
        "Ġcap": 1049,
        "Ġfind": 1050,
        "Ġday": 1051,
        "Ġ'": 1052,
        "Ġread": 1053,
        "ular": 1054,
        "ines": 1055,
        "Ġrep": 1056,
        "oh": 1057,
        "Ġdet": 1058,
        "ices": 1059,
        "uth": 1060,
        "ered": 1061,
        "Ġduring": 1062,
        "Ġcre": 1063,
        "Ġ9": 1064,
        "Ġbig": 1065,
        "ĠSo": 1066,
        "min": 1067,
        "ision": 1068,
        "Ġdevelop": 1069,
        "Ġperson": 1070,
        "Ġmonth": 1071,
        "akes": 1072,
        "Ġserv": 1073,
        "ĠOn": 1074,
        "ivers": 1075,
        "Ġiss": 1076,
        "Ġsince": 1077,
        "Ġfollow": 1078,
        "Ġtold": 1079,
        "ically": 1080,
        "ared": 1081,
        "Ġweek": 1082,
        "med": 1083,
        "Ġwar": 1084,
        "att": 1085,
        "ages": 1086,
        "Ġfew": 1087,
        "Ġcent": 1088,
        "Ġpolit": 1089,
        "orth": 1090,
        "ording": 1091,
        "Ġleg": 1092,
        "ĠAd": 1093,
        "aj": 1094,
        "ves": 1095,
        "get": 1096,
        "ef": 1097,
        "Ġexpl": 1098,
        "ash": 1099,
        "Ġlot": 1100,
        "Ġbelie": 1101,
        "ĠFr": 1102,
        "Ġgener": 1103,
        "Ġtoo": 1104,
        "ata": 1105,
        "Ġprot": 1106,
        "der": 1107,
        "Ġopp": 1108,
        "ric": 1109,
        "iet": 1110,
        "ĠAt": 1111,
        "rent": 1112,
        "anc": 1113,
        "Ġfil": 1114,
        "Ġcontin": 1115,
        "ĠPro": 1116,
        "Ġrequ": 1117,
        "bers": 1118,
        "Ġ.": 1119,
        "ĠHow": 1120,
        "ex": 1121,
        "Ġput": 1122,
        "ness": 1123,
        "Ġcle": 1124,
        "Ġresp": 1125,
        "ention": 1126,
        "Ġinf": 1127,
        "ized": 1128,
        "Ġanother": 1129,
        "chool": 1130,
        "ĠâĢĺ": 1131,
        "Ġdifferent": 1132,
        "Ġsomething": 1133,
        "Ġcor": 1134,
        "ute": 1135,
        "Ġloc": 1136,
        "Ġinvest": 1137,
        "Ġsoc": 1138,
        "Ġpower": 1139,
        "Ġcommun": 1140,
        "ience": 1141,
        "uc": 1142,
        "Ġpass": 1143,
        "Ġplan": 1144,
        "Ġlife": 1145,
        "Ġrele": 1146,
        "Ġart": 1147,
        "arl": 1148,
        "the": 1149,
        "Ġhead": 1150,
        "Ġfar": 1151,
        "Ġvot": 1152,
        "Ġthings": 1153,
        "Ġmet": 1154,
        "ody": 1155,
        "Ġche": 1156,
        "thing": 1157,
        "ik": 1158,
        "Ġposs": 1159,
        "ĠRep": 1160,
        "erest": 1161,
        "ross": 1162,
        "ned": 1163,
        "Ġmight": 1164,
        "Ġbo": 1165,
        "Ġcamp": 1166,
        "Ġdep": 1167,
        "ants": 1168,
        "arge": 1169,
        "ize": 1170,
        "ient": 1171,
        "Ġeach": 1172,
        "Ġchild": 1173,
        "view": 1174,
        "ret": 1175,
        "iness": 1176,
        "Ġask": 1177,
        "Ġnever": 1178,
        "Ġnext": 1179,
        "ĠUS": 1180,
        "ield": 1181,
        "Ġsecond": 1182,
        "Ġbus": 1183,
        "Ġdem": 1184,
        "Ġquest": 1185,
        "Ġmark": 1186,
        "Ġadv": 1187,
        "Ġcome": 1188,
        "Ġbest": 1189,
        "Ġgot": 1190,
        "ĠBl": 1191,
        "ital": 1192,
        "Ġallow": 1193,
        "Ġopen": 1194,
        "ee": 1195,
        "ittle": 1196,
        "son": 1197,
        "Ġseem": 1198,
        "20": 1199,
        "Ġpost": 1200,
        "ple": 1201,
        "Ġfeel": 1202,
        "Ġpercent": 1203,
        "ug": 1204,
        "cl": 1205,
        "Ġpri": 1206,
        "Ġhome": 1207,
        "Ġdist": 1208,
        "rat": 1209,
        "ten": 1210,
        "Ġdirect": 1211,
        "gram": 1212,
        "Ġwr": 1213,
        "Ġincre": 1214,
        "ired": 1215,
        "Ġcontro": 1216,
        "osed": 1217,
        "Ġresult": 1218,
        "orn": 1219,
        "ĠInd": 1220,
        "Ġcomple": 1221,
        "Ġhard": 1222,
        "Ġimport": 1223,
        "Ġcare": 1224,
        "ately": 1225,
        "less": 1226,
        "Ġplace": 1227,
        "Ġav": 1228,
        "chn": 1229,
        "Ġhum": 1230,
        "Ġmillion": 1231,
        "Ġincluding": 1232,
        "Ġwithout": 1233,
        "Ġinform": 1234,
        "conom": 1235,
        "Ġproble": 1236,
        "Ġide": 1237,
        "Ġtop": 1238,
        "ĠShe": 1239,
        "ama": 1240,
        "Ġnumber": 1241,
        "ĠZ": 1242,
        "Ġbuild": 1243,
        "gy": 1244,
        "Ġcountry": 1245,
        "Ġgl": 1246,
        "aim": 1247,
        "oney": 1248,
        "Ġel": 1249,
        "Ġstand": 1250,
        "Ġfour": 1251,
        "ably": 1252,
        "ral": 1253,
        "ished": 1254,
        "co": 1255,
        "Ġbetter": 1256,
        "riend": 1257,
        "ways": 1258,
        "Ġtri": 1259,
        "Ġlet": 1260,
        "ĠWhen": 1261,
        "Ġpartic": 1262,
        "Ġrecent": 1263,
        "Ġmov": 1264,
        "Ġinterest": 1265,
        "ĠQ": 1266,
        "Ġless": 1267,
        "Ġturn": 1268,
        "Ġlittle": 1269,
        "Ġseason": 1270,
        "ration": 1271,
        "ĠPh": 1272,
        "We": 1273,
        "ract": 1274,
        "Ġappro": 1275,
        "Ġbro": 1276,
        "Ġcalled": 1277,
        "Ġmil": 1278,
        "Ġbeh": 1279,
        "ĠBe": 1280,
        "line": 1281,
        "Ġcase": 1282,
        "ised": 1283,
        "app": 1284,
        "Ġdr": 1285,
        "Ġpop": 1286,
        "Ġleft": 1287,
        "Ġann": 1288,
        "ency": 1289,
        "Ġrest": 1290,
        "ling": 1291,
        "Ġmove": 1292,
        "Ġkeep": 1293,
        "Ġattack": 1294,
        "Ġfun": 1295,
        "Ġdidn": 1296,
        "ina": 1297,
        "ode": 1298,
        "leg": 1299,
        "Ġfull": 1300,
        "ering": 1301,
        "Ġmain": 1302,
        "ajor": 1303,
        "ĠWhat": 1304,
        "uro": 1305,
        "ted": 1306,
        "inal": 1307,
        "Ġprev": 1308,
        "Ġeffect": 1309,
        "Ġtest": 1310,
        "Ġusing": 1311,
        "ature": 1312,
        "me": 1313,
        "ĠAmerican": 1314,
        "Ġpay": 1315,
        "Ġprogram": 1316,
        "Ġval": 1317,
        "Ġpolice": 1318,
        "be": 1319,
        "Ġpos": 1320,
        "Ġdata": 1321,
        "Ġeconom": 1322,
        "Ġnews": 1323,
        "Ġform": 1324,
        "Ġwin": 1325,
        "ĠOb": 1326,
        "ains": 1327,
        "Ġlevel": 1328,
        "iving": 1329,
        "ined": 1330,
        "Ġchar": 1331,
        "ology": 1332,
        "ready": 1333,
        "Ġsmall": 1334,
        "Ġschool": 1335,
        "Ġlist": 1336,
        "10": 1337,
        "uck": 1338,
        "to": 1339,
        "ided": 1340,
        "ger": 1341,
        "'re": 1342,
        "Ġeas": 1343,
        "ploy": 1344,
        "ird": 1345,
        "Ġchange": 1346,
        "ĠUnited": 1347,
        "reen": 1348,
        "Ġprocess": 1349,
        "ĠGo": 1350,
        "nce": 1351,
        "__": 1352,
        "Ġ=": 1353,
        "Ġhist": 1354,
        "Ġwomen": 1355,
        "Ġdri": 1356,
        "ĠCan": 1357,
        "Ġprom": 1358,
        "Ġpresident": 1359,
        "Ġrece": 1360,
        "Ġcurrent": 1361,
        "ians": 1362,
        "Ġcompany": 1363,
        "Ġty": 1364,
        "used": 1365,
        "Ġ--": 1366,
        "ohn": 1367,
        "ĠChr": 1368,
        "Ġalready": 1369,
        "ruct": 1370,
        "iver": 1371,
        "Ġbre": 1372,
        "Ġwhy": 1373,
        "ĠAll": 1374,
        "Ġsol": 1375,
        "Ġexpect": 1376,
        "rap": 1377,
        "Ġunt": 1378,
        "Ġmat": 1379,
        "Ġtechn": 1380,
        "Ġalways": 1381,
        "Ġbook": 1382,
        "Ġmoney": 1383,
        "Ġlater": 1384,
        "Ġbusiness": 1385,
        "Ġproject": 1386,
        "Ġclass": 1387,
        "Ġ12": 1388,
        "Ġofficial": 1389,
        "Ġthing": 1390,
        "ases": 1391,
        "stand": 1392,
        "iversity": 1393,
        "wit": 1394,
        "ĠSp": 1395,
        "Ġjob": 1396,
        "It": 1397,
        "Ġ18": 1398,
        "ards": 1399,
        "aign": 1400,
        "Ġclaim": 1401,
        "Ġinformation": 1402,
        "aff": 1403,
        "Ġorgan": 1404,
        "Ġmajor": 1405,
        "Ġprof": 1406,
        "Ġstory": 1407,
        "Ġdesign": 1408,
        "Ġable": 1409,
        "Ġtalk": 1410,
        "Ġchang": 1411,
        "ertain": 1412,
        "Ġrese": 1413,
        "Ġvis": 1414,
        "Ġfree": 1415,
        "Ġhealth": 1416,
        "lection": 1417,
        "iven": 1418,
        "Ġpast": 1419,
        "ĠOne": 1420,
        "urs": 1421,
        "ption": 1422,
        "ĠPres": 1423,
        "ead": 1424,
        "outh": 1425,
        "here": 1426,
        "ĠMar": 1427,
        "Ġcity": 1428,
        "Ġoper": 1429,
        "ĠPl": 1430,
        "ĠTo": 1431,
        "Ġmust": 1432,
        "ĠMr": 1433,
        "Ġaway": 1434,
        "ĠSc": 1435,
        "ury": 1436,
        "ior": 1437,
        "ample": 1438,
        "ural": 1439,
        "Ġhappen": 1440,
        "uthor": 1441,
        "Ġimportant": 1442,
        "ĠJohn": 1443,
        "ĠCon": 1444,
        "Ġvar": 1445,
        "Ġest": 1446,
        "Ġsk": 1447,
        "Ġold": 1448,
        "ured": 1449,
        "Ġpat": 1450,
        "urity": 1451,
        "acy": 1452,
        "Ġdoesn": 1453,
        "Ġkill": 1454,
        "Ġleast": 1455,
        "Ġgrow": 1456,
        "ending": 1457,
        "Ġ15": 1458,
        "Ġedit": 1459,
        "ission": 1460,
        "ott": 1461,
        "ained": 1462,
        "ĠBr": 1463,
        "Ġconst": 1464,
        "Ġcost": 1465,
        "ides": 1466,
        "Ġhop": 1467,
        "Ġdays": 1468,
        "ox": 1469,
        "Ġtell": 1470,
        "ney": 1471,
        "els": 1472,
        "Ġmen": 1473,
        "ider": 1474,
        "Ġcame": 1475,
        "Ġcampaign": 1476,
        "ern": 1477,
        "Ġstre": 1478,
        "Ġenough": 1479,
        "ĠRepublic": 1480,
        "Ġaff": 1481,
        "Ġview": 1482,
        "Ġmar": 1483,
        "Ġkind": 1484,
        "side": 1485,
        "ĠOr": 1486,
        "ccess": 1487,
        "Ġmaking": 1488,
        "Ġrecord": 1489,
        "oad": 1490,
        "tt": 1491,
        "sc": 1492,
        "ĠComm": 1493,
        "Ġelect": 1494,
        "Ġlarge": 1495,
        "Ġpolic": 1496,
        "Ġfamily": 1497,
        "ush": 1498,
        "Ġsit": 1499,
        "Ġfriend": 1500,
        "----": 1501,
        "eral": 1502,
        "ley": 1503,
        "Ġtax": 1504,
        "ality": 1505,
        "ĠNo": 1506,
        "Ġpolitical": 1507,
        "ising": 1508,
        "ĠMc": 1509,
        "ror": 1510,
        "ator": 1511,
        "pped": 1512,
        "ries": 1513,
        "arent": 1514,
        "ional": 1515,
        "ived": 1516,
        "Ġuntil": 1517,
        "ified": 1518,
        "Ġvide": 1519,
        "alf": 1520,
        "augh": 1521,
        "Ġworking": 1522,
        "Ġdeal": 1523,
        "Ġdeb": 1524,
        "ĠMay": 1525,
        "ĠDem": 1526,
        "aps": 1527,
        "Ġline": 1528,
        "Ġve": 1529,
        "Ġfore": 1530,
        "ued": 1531,
        "aining": 1532,
        "Ġtook": 1533,
        "bs": 1534,
        "ony": 1535,
        "Ġ11": 1536,
        "Ġair": 1537,
        "ocrat": 1538,
        "Ġbecome": 1539,
        "Ġdel": 1540,
        "ane": 1541,
        "Ġintern": 1542,
        "Ġes": 1543,
        "Ġactually": 1544,
        "ister": 1545,
        "ĠRuss": 1546,
        "iol": 1547,
        "ĠPresident": 1548,
        "ember": 1549,
        "work": 1550,
        "ĠEuro": 1551,
        "Ġmean": 1552,
        "ware": 1553,
        "ĠSy": 1554,
        "Ġoften": 1555,
        "Ġformer": 1556,
        "Ġfund": 1557,
        "Ġ,": 1558,
        "Ġever": 1559,
        "Ġwon": 1560,
        "ĠWith": 1561,
        "year": 1562,
        "Ġgive": 1563,
        "most": 1564,
        "eng": 1565,
        "Ġaccording": 1566,
        "Ġgames": 1567,
        "iqu": 1568,
        "by": 1569,
        "Ġreturn": 1570,
        "oint": 1571,
        "Ġhuman": 1572,
        "Ġorder": 1573,
        "Ġword": 1574,
        "aring": 1575,
        "gin": 1576,
        "ison": 1577,
        "Ġbas": 1578,
        "ĠAm": 1579,
        "ization": 1580,
        "ann": 1581,
        "Ġtimes": 1582,
        "wh": 1583,
        "Ġ199": 1584,
        "Ġdev": 1585,
        "ither": 1586,
        "Ġname": 1587,
        "ĠCol": 1588,
        "Ġbit": 1589,
        "Ġsever": 1590,
        "iber": 1591,
        "ron": 1592,
        "uture": 1593,
        "icle": 1594,
        "Ġperform": 1595,
        "Ġsing": 1596,
        "Ġfac": 1597,
        "Ġmarket": 1598,
        "Ġcharac": 1599,
        "Ġdoing": 1600,
        "idd": 1601,
        "ER": 1602,
        "raft": 1603,
        "Ġappear": 1604,
        "Ġra": 1605,
        "Th": 1606,
        "for": 1607,
        "Ġplayers": 1608,
        "arn": 1609,
        "ched": 1610,
        "Ġearly": 1611,
        "aken": 1612,
        "Ġtoday": 1613,
        "ĠAfter": 1614,
        "iam": 1615,
        "Ġseen": 1616,
        "Ġhaving": 1617,
        "Ġnight": 1618,
        "rop": 1619,
        "sh": 1620,
        "ĠIm": 1621,
        "Ġmedia": 1622,
        "ĠTe": 1623,
        "Ġla": 1624,
        "Ġevent": 1625,
        "mber": 1626,
        "ium": 1627,
        "Ġchildren": 1628,
        "Ġpot": 1629,
        "Ġcontrol": 1630,
        "idence": 1631,
        "Ġsocial": 1632,
        "Ġwhether": 1633,
        "Ġcrit": 1634,
        "Ġpress": 1635,
        "Ġsure": 1636,
        "Ġseveral": 1637,
        "50": 1638,
        "//": 1639,
        "Ġfive": 1640,
        "artment": 1641,
        "Ġmeet": 1642,
        "Ġwent": 1643,
        "ene": 1644,
        "iously": 1645,
        "Ġyoung": 1646,
        "Ġmilit": 1647,
        "ories": 1648,
        "ĠObama": 1649,
        "let": 1650,
        "Ġprop": 1651,
        "ĠEurope": 1652,
        "Ġquestion": 1653,
        "Ġequ": 1654,
        "Ġlikely": 1655,
        "Ġmembers": 1656,
        "Ġcertain": 1657,
        "une": 1658,
        "ĠYork": 1659,
        "ands": 1660,
        "ots": 1661,
        "Ġocc": 1662,
        "Ġexample": 1663,
        "ĠStates": 1664,
        "br": 1665,
        "Ġeng": 1666,
        "enn": 1667,
        "Ġvers": 1668,
        "Ġwater": 1669,
        "Ġinvol": 1670,
        "Ġside": 1671,
        "Ġarg": 1672,
        "Ġant": 1673,
        "Ġshort": 1674,
        "ĠNot": 1675,
        "Ġhour": 1676,
        "ĠEx": 1677,
        "Ġdone": 1678,
        "ended": 1679,
        "Ġsuccess": 1680,
        "ential": 1681,
        "ball": 1682,
        "Ġalong": 1683,
        "ially": 1684,
        "vert": 1685,
        "ĠCo": 1686,
        "Ġdesc": 1687,
        "ats": 1688,
        "empt": 1689,
        "Ġmonths": 1690,
        "Ġ#": 1691,
        "ĠState": 1692,
        "ubl": 1693,
        "Ġwithin": 1694,
        "Ġcourse": 1695,
        "ster": 1696,
        "11": 1697,
        "ulation": 1698,
        "ague": 1699,
        "Ġ]": 1700,
        "uff": 1701,
        "Ġsex": 1702,
        "imate": 1703,
        "Ġonce": 1704,
        "lf": 1705,
        "Ġactiv": 1706,
        "Ġamong": 1707,
        "Ġfight": 1708,
        "rew": 1709,
        "urch": 1710,
        "nect": 1711,
        "Ġpossible": 1712,
        "Ġinvestig": 1713,
        "Ġcho": 1714,
        "Ġfuture": 1715,
        "Ġconcer": 1716,
        "Ġmeans": 1717,
        "iting": 1718,
        "ortun": 1719,
        "ones": 1720,
        "Ġunderstand": 1721,
        "Ġproblem": 1722,
        "itive": 1723,
        "ĠPol": 1724,
        "Ġauthor": 1725,
        "ggest": 1726,
        "Ġthought": 1727,
        "ourn": 1728,
        "Ġavail": 1729,
        "Ġviol": 1730,
        "ald": 1731,
        "Ġi": 1732,
        "Ġknown": 1733,
        "ĠHowever": 1734,
        "Ġpriv": 1735,
        "ivid": 1736,
        "oci": 1737,
        "19": 1738,
        "Ġprotect": 1739,
        "gress": 1740,
        "Ġacross": 1741,
        "Ġyet": 1742,
        "Ġnon": 1743,
        "Ġhold": 1744,
        "Ġorig": 1745,
        "ler": 1746,
        "Ġlocal": 1747,
        "Ġcommunity": 1748,
        "Ġreason": 1749,
        "Ġproduct": 1750,
        "Ġ2016": 1751,
        "Ġsuggest": 1752,
        "Ġ&": 1753,
        "Ġwrit": 1754,
        "Ġfail": 1755,
        "verage": 1756,
        "Ġmakes": 1757,
        "ĠChrist": 1758,
        "arm": 1759,
        "book": 1760,
        "inc": 1761,
        "orld": 1762,
        "back": 1763,
        "ĠHouse": 1764,
        "por": 1765,
        "ĠX": 1766,
        "not": 1767,
        "ederal": 1768,
        "Ġ30": 1769,
        "Ġasked": 1770,
        "Ġmus": 1771,
        "aged": 1772,
        "Ġreported": 1773,
        "Ġgiven": 1774,
        "ĠSen": 1775,
        "ensive": 1776,
        "Ġprob": 1777,
        "Ġstrong": 1778,
        "Ġvideo": 1779,
        "Ġothers": 1780,
        "Ġbelieve": 1781,
        "Ġgetting": 1782,
        "ĠFl": 1783,
        "Ġlight": 1784,
        "Ġben": 1785,
        "ĠWhile": 1786,
        "ĠUniversity": 1787,
        "ĠPr": 1788,
        "ances": 1789,
        "ĠMin": 1790,
        "Ġannoun": 1791,
        "ĠDemocrat": 1792,
        "itions": 1793,
        "ober": 1794,
        "Ġident": 1795,
        "lement": 1796,
        "ored": 1797,
        "Ġca": 1798,
        "Ġlim": 1799,
        "iety": 1800,
        "Ġsent": 1801,
        "iron": 1802,
        "ĠDon": 1803,
        "Ġcut": 1804,
        "Ġ2015": 1805,
        "Ġsour": 1806,
        "Ġcond": 1807,
        "Ġcreat": 1808,
        "urther": 1809,
        "my": 1810,
        "ashing": 1811,
        "Ġnet": 1812,
        "'ve": 1813,
        "Ġ16": 1814,
        "Ġnational": 1815,
        "ĠCent": 1816,
        "Ġstarted": 1817,
        "Ġavailable": 1818,
        "rest": 1819,
        "Ġhig": 1820,
        "Ġsaf": 1821,
        "Ġclose": 1822,
        "30": 1823,
        ".,": 1824,
        "Ġdeath": 1825,
        "Ġpar": 1826,
        "Ġland": 1827,
        "Ġindust": 1828,
        "Ġlove": 1829,
        "Ġissue": 1830,
        "Ġhistory": 1831,
        "Ġbased": 1832,
        "Ġaccount": 1833,
        "aster": 1834,
        "ĠAmerica": 1835,
        "use": 1836,
        "Ġemploy": 1837,
        "Ġlow": 1838,
        "selves": 1839,
        "Ġfollowing": 1840,
        "orts": 1841,
        "ability": 1842,
        "Ġago": 1843,
        "utes": 1844,
        "Ġmom": 1845,
        "12": 1846,
        "Ġtrying": 1847,
        "Ġalmost": 1848,
        "Ġcomes": 1849,
        "Ġparty": 1850,
        "Ġseries": 1851,
        "ĠSec": 1852,
        "gether": 1853,
        "Ġtogether": 1854,
        "ument": 1855,
        "uly": 1856,
        "hers": 1857,
        "Ġidea": 1858,
        "of": 1859,
        "Ġfoc": 1860,
        "Ġ2014": 1861,
        "reed": 1862,
        "ination": 1863,
        "Ġaccess": 1864,
        "resent": 1865,
        "ilar": 1866,
        "ief": 1867,
        "Ġisn": 1868,
        "eb": 1869,
        "Ġimpro": 1870,
        "Ġadded": 1871,
        "ails": 1872,
        "Ġexperience": 1873,
        "Ġ14": 1874,
        "ĠGr": 1875,
        "Ġclear": 1876,
        "itional": 1877,
        "Ġtrad": 1878,
        "Ġpract": 1879,
        "though": 1880,
        "erence": 1881,
        "ĠÂ": 1882,
        "Ġfilm": 1883,
        "pro": 1884,
        "Ġ...": 1885,
        "Ġhalf": 1886,
        "ien": 1887,
        "ĠCanad": 1888,
        "ged": 1889,
        "ĠBro": 1890,
        "ustom": 1891,
        "rict": 1892,
        "Ġrul": 1893,
        "ream": 1894,
        "unch": 1895,
        "af": 1896,
        "AT": 1897,
        "Ġsix": 1898,
        "Ġ:": 1899,
        "Ġcomplete": 1900,
        "ĠEng": 1901,
        "Ġarea": 1902,
        "Ġlooking": 1903,
        "ividual": 1904,
        "Ġfav": 1905,
        "Ġlive": 1906,
        "ring": 1907,
        "Ġanything": 1908,
        "Ġanal": 1909,
        "ograp": 1910,
        "ĠNe": 1911,
        "erman": 1912,
        "Ġ|": 1913,
        "ĠMan": 1914,
        "Ġmiss": 1915,
        "minist": 1916,
        "witter": 1917,
        "Ġris": 1918,
        "Ġsaying": 1919,
        "inton": 1920,
        "rael": 1921,
        "Ġpresent": 1922,
        "ai": 1923,
        "ĠSu": 1924,
        "rug": 1925,
        "raw": 1926,
        "ĠNorth": 1927,
        "Ġvict": 1928,
        "cially": 1929,
        "ows": 1930,
        "Ġ13": 1931,
        "Ġbill": 1932,
        "Ġtaken": 1933,
        "Ġbad": 1934,
        "Ġz": 1935,
        "aid": 1936,
        "Ġentire": 1937,
        "Ġmor": 1938,
        "Ġaut": 1939,
        "wards": 1940,
        "Ġcourt": 1941,
        "Ġtry": 1942,
        "Ġ17": 1943,
        "play": 1944,
        "Ġcompet": 1945,
        "uge": 1946,
        "ĠNow": 1947,
        "Ġphot": 1948,
        "ert": 1949,
        "Ġer": 1950,
        "ators": 1951,
        "sy": 1952,
        "Ġtre": 1953,
        "ĠAf": 1954,
        "osp": 1955,
        "Ġnear": 1956,
        "ĠWar": 1957,
        "Ġbehind": 1958,
        "ĠAb": 1959,
        "Ġsecurity": 1960,
        "ĠJust": 1961,
        "Ġmilitary": 1962,
        "Ġmult": 1963,
        "Ġface": 1964,
        "Ġproper": 1965,
        "ĠDep": 1966,
        "ales": 1967,
        "ĠCar": 1968,
        "ĠBrit": 1969,
        "'m": 1970,
        "Ġdiscuss": 1971,
        "Ġtot": 1972,
        "Ġthreat": 1973,
        "Ġsingle": 1974,
        "atic": 1975,
        "Ġrather": 1976,
        "Ġindividual": 1977,
        "nes": 1978,
        "Ġmind": 1979,
        "ĠInst": 1980,
        "Ġpubl": 1981,
        "Ġstudy": 1982,
        "aper": 1983,
        "ĠRes": 1984,
        "Ġpolicy": 1985,
        "Ġquick": 1986,
        "ids": 1987,
        "IN": 1988,
        "ĠCal": 1989,
        "15": 1990,
        "Ġwanted": 1991,
        "Ġfall": 1992,
        "Ġ/": 1993,
        "ĠEd": 1994,
        "âĢĵ": 1995,
        "ĠNational": 1996,
        "ĠApp": 1997,
        "irc": 1998,
        "Ġmess": 1999,
        "lling": 2000,
        "Ġsomeone": 2001,
        "off": 2002,
        "ĠWorld": 2003,
        "par": 2004,
        "ĠBy": 2005,
        "Ġspecial": 2006,
        "ĠHis": 2007,
        "Ġsum": 2008,
        "ttp": 2009,
        "Ġplayer": 2010,
        "Ġblack": 2011,
        "Ġredu": 2012,
        "ĠClinton": 2013,
        "Ġfood": 2014,
        "ĠIsrael": 2015,
        "ĠThese": 2016,
        "Ġbring": 2017,
        "Ġcult": 2018,
        "Ġcomb": 2019,
        "ĠHar": 2020,
        "ĠMy": 2021,
        "Ġkey": 2022,
        "ply": 2023,
        "ĠSome": 2024,
        "Ġattempt": 2025,
        "Ġcompan": 2026,
        "ĠMe": 2027,
        "ĠDav": 2028,
        "ĠAust": 2029,
        "Ġtaking": 2030,
        "ĠCity": 2031,
        "Ġpret": 2032,
        "ify": 2033,
        "ON": 2034,
        "Ġelse": 2035,
        "Ġfoot": 2036,
        "olution": 2037,
        "elt": 2038,
        "viron": 2039,
        "Ġfront": 2040,
        "ashington": 2041,
        "Ġprobably": 2042,
        "Ġspace": 2043,
        "Ġnothing": 2044,
        "Ġbody": 2045,
        "rote": 2046,
        "icult": 2047,
        "ĠGe": 2048,
        "ches": 2049,
        "Ġresearch": 2050,
        "Ġcou": 2051,
        "Ġjo": 2052,
        "Ġconnect": 2053,
        "ĠPart": 2054,
        "Ġcoming": 2055,
        ".)": 2056,
        "ming": 2057,
        "ĠGu": 2058,
        "Ġdescrib": 2059,
        "go": 2060,
        "amed": 2061,
        "reme": 2062,
        "Ġsw": 2063,
        "Ġeither": 2064,
        "Ġ2013": 2065,
        "Ġpoints": 2066,
        "Ġsimilar": 2067,
        "Ġhowever": 2068,
        "://": 2069,
        "cing": 2070,
        "Ġbenef": 2071,
        "ĠJan": 2072,
        "Ġexist": 2073,
        "Ġsignific": 2074,
        "aces": 2075,
        "ault": 2076,
        "Ġdecision": 2077,
        "ĠWashington": 2078,
        "hy": 2079,
        "over": 2080,
        "ully": 2081,
        "Ġtarg": 2082,
        "Ġmass": 2083,
        "ana": 2084,
        "Ġcoun": 2085,
        "irl": 2086,
        "Ġfeat": 2087,
        "Ġsus": 2088,
        "Ġrights": 2089,
        "Ġhit": 2090,
        "Ġimm": 2091,
        "Ġconv": 2092,
        "Ġcreate": 2093,
        "Ġenc": 2094,
        "Ġ2012": 2095,
        "asing": 2096,
        "Ġban": 2097,
        "yn": 2098,
        "Ġfire": 2099,
        "ĠSouth": 2100,
        "Ġservice": 2101,
        "Ġfurther": 2102,
        "Ġhouse": 2103,
        "Ġwrote": 2104,
        "Ġwa": 2105,
        "Ġchall": 2106,
        "ung": 2107,
        "Ġdoc": 2108,
        "Ġfig": 2109,
        "mb": 2110,
        "ĠMed": 2111,
        "Ġcompl": 2112,
        "Ġstop": 2113,
        "ĠBar": 2114,
        "sw": 2115,
        "Ġthird": 2116,
        "ĠDo": 2117,
        "Ġbegin": 2118,
        "Ġpick": 2119,
        "Ġ*": 2120,
        "Ġissues": 2121,
        "Ġfield": 2122,
        "Ġrepl": 2123,
        "Ġwhole": 2124,
        "ively": 2125,
        "Ġ100": 2126,
        "Ġcand": 2127,
        "now": 2128,
        "Ġmeas": 2129,
        "Ġsuper": 2130,
        "16": 2131,
        "Ġstep": 2132,
        "pping": 2133,
        "Ġrelations": 2134,
        "Ġseems": 2135,
        "ĠAcc": 2136,
        "ape": 2137,
        "Ġeverything": 2138,
        "aul": 2139,
        "ently": 2140,
        "IS": 2141,
        "ilt": 2142,
        "ww": 2143,
        "itted": 2144,
        "pecially": 2145,
        "Ġexec": 2146,
        "pite": 2147,
        "ried": 2148,
        "Ġfederal": 2149,
        "ĠDr": 2150,
        "Ġ)": 2151,
        "Ġ25": 2152,
        "Ġcompanies": 2153,
        "Ġdam": 2154,
        "Ġlab": 2155,
        "Ġey": 2156,
        "Ġstates": 2157,
        "attle": 2158,
        "Ġsound": 2159,
        "Ġwatch": 2160,
        "Ġdue": 2161,
        "Ġtra": 2162,
        "Ġinfl": 2163,
        "ĠIntern": 2164,
        "Ġleaders": 2165,
        "ĠAss": 2166,
        "uation": 2167,
        "ibility": 2168,
        "oon": 2169,
        "ivil": 2170,
        "Ġ2017": 2171,
        "Ġreleased": 2172,
        "Ġstri": 2173,
        "obal": 2174,
        "Ġroom": 2175,
        "Ġcustom": 2176,
        "head": 2177,
        "Ġposition": 2178,
        "Ġself": 2179,
        "iday": 2180,
        "Ġ+": 2181,
        "ery": 2182,
        "Ġopt": 2183,
        "Ġofficials": 2184,
        "ĠChina": 2185,
        "Ġdou": 2186,
        "Ġrole": 2187,
        "ran": 2188,
        "Ġtreat": 2189,
        "ades": 2190,
        "rodu": 2191,
        "Ġener": 2192,
        "Ġstudents": 2193,
        "amer": 2194,
        "Ġoutside": 2195,
        "Ġbegan": 2196,
        "Ġfinal": 2197,
        "Ġstat": 2198,
        "Ġcharacter": 2199,
        "Ġmatter": 2200,
        "14": 2201,
        "AR": 2202,
        "ender": 2203,
        "Ġdevelopment": 2204,
        "Ġbreak": 2205,
        "Ġabove": 2206,
        "Ġprovide": 2207,
        "arlier": 2208,
        "vironment": 2209,
        "AN": 2210,
        "Ġhours": 2211,
        "Ġcountries": 2212,
        "Ġitself": 2213,
        "sec": 2214,
        "like": 2215,
        "Ġinit": 2216,
        "Ġstatement": 2217,
        "Ġrepresent": 2218,
        "iod": 2219,
        "Ġhimself": 2220,
        "Ġ198": 2221,
        "ĠWill": 2222,
        "Ġthemselves": 2223,
        "Ġaction": 2224,
        "Ġoffice": 2225,
        "Ã©": 2226,
        "lim": 2227,
        "Ġamount": 2228,
        "ĠGerman": 2229,
        "Ġneg": 2230,
        "Ġbecame": 2231,
        "Ġcontinue": 2232,
        "umb": 2233,
        "Ġgun": 2234,
        "Ġspecific": 2235,
        "Ġlarg": 2236,
        "aced": 2237,
        "Ġgeneral": 2238,
        "reg": 2239,
        "arth": 2240,
        "ask": 2241,
        "Ġaddress": 2242,
        "Ġtrue": 2243,
        "lish": 2244,
        "Ġsimply": 2245,
        "Ġwasn": 2246,
        "Ġsignificant": 2247,
        "acebook": 2248,
        "oid": 2249,
        "Ġcop": 2250,
        "'ll": 2251,
        "arter": 2252,
        "Ġground": 2253,
        "OR": 2254,
        "Ġrad": 2255,
        "ĠNews": 2256,
        "Ġred": 2257,
        "Ġrunning": 2258,
        "ili": 2259,
        "Ġdifficult": 2260,
        "ogn": 2261,
        "ĠEn": 2262,
        "Ġinterview": 2263,
        "Ġversion": 2264,
        "Ġprofess": 2265,
        "Ġagree": 2266,
        "Ġneeds": 2267,
        "Ġtyp": 2268,
        "Ġadminist": 2269,
        "Ġevidence": 2270,
        "Ġdrug": 2271,
        "ev": 2272,
        "Ġgroups": 2273,
        "Ġcommon": 2274,
        "ĠTwitter": 2275,
        "Ġeveryone": 2276,
        "Ġrespons": 2277,
        "Ġinj": 2278,
        "iddle": 2279,
        "Ġappe": 2280,
        "Ġlat": 2281,
        "Ġdom": 2282,
        "Ġshows": 2283,
        "ĠMus": 2284,
        "Ġtem": 2285,
        "Ġbuilding": 2286,
        "ĠPe": 2287,
        "ĠWest": 2288,
        "Ġwoman": 2289,
        "Ġdest": 2290,
        "Ġbelow": 2291,
        "Ġ50": 2292,
        "BC": 2293,
        "eks": 2294,
        "Ġmusic": 2295,
        "13": 2296,
        "ogle": 2297,
        "Ġrelease": 2298,
        "lam": 2299,
        "Ġneeded": 2300,
        "angu": 2301,
        "Ġball": 2302,
        "ournal": 2303,
        "Ġexc": 2304,
        "ribut": 2305,
        "right": 2306,
        "ift": 2307,
        "Ġdeep": 2308,
        "Ġquite": 2309,
        "Ġsaw": 2310,
        "Ġpretty": 2311,
        "Ġinclude": 2312,
        "Ġbar": 2313,
        "Ġcandid": 2314,
        "ĠWhite": 2315,
        "Ġgen": 2316,
        "isc": 2317,
        "Ġplayed": 2318,
        "Ġenergy": 2319,
        "Ġmot": 2320,
        "ĠOct": 2321,
        "Ġap": 2322,
        "ival": 2323,
        "Ġsense": 2324,
        "ote": 2325,
        "Ġmag": 2326,
        "yle": 2327,
        "body": 2328,
        "Ġindustry": 2329,
        "Ġplaying": 2330,
        "Ġlate": 2331,
        "17": 2332,
        "Ġwhite": 2333,
        "Ġlegal": 2334,
        "ĠFacebook": 2335,
        "Ġphys": 2336,
        "ĠMich": 2337,
        "Ġalleg": 2338,
        "Ġcharg": 2339,
        "atur": 2340,
        "bo": 2341,
        "Ġlost": 2342,
        "Ġabs": 2343,
        "Ġfriends": 2344,
        "ĠSte": 2345,
        "Ġinstead": 2346,
        "ĠCong": 2347,
        "Ġ{": 2348,
        "Ġespecially": 2349,
        "ique": 2350,
        "osing": 2351,
        "Ġ24": 2352,
        "ĠSm": 2353,
        "where": 2354,
        "ĠPer": 2355,
        "lev": 2356,
        "Ġbillion": 2357,
        "Ġhom": 2358,
        "ĠSept": 2359,
        "Ġtrack": 2360,
        "oring": 2361,
        "Ġanim": 2362,
        "Ġple": 2363,
        "Ġobject": 2364,
        "Ġvalue": 2365,
        "Ġvote": 2366,
        "istic": 2367,
        "Ġhost": 2368,
        "ager": 2369,
        "Ġhttp": 2370,
        "Ġforward": 2371,
        "Ġrecently": 2372,
        "ES": 2373,
        "irt": 2374,
        "Ġelection": 2375,
        "Ġperiod": 2376,
        "AS": 2377,
        "Ġsuff": 2378,
        "ij": 2379,
        "time": 2380,
        "Ġweeks": 2381,
        "epend": 2382,
        "Ġchanges": 2383,
        "Ġjud": 2384,
        "ĠMarch": 2385,
        "medi": 2386,
        "hod": 2387,
        "ĠMore": 2388,
        "Ġopportun": 2389,
        "Ġlo": 2390,
        "Ġdeter": 2391,
        "Ġep": 2392,
        "ĠRepublican": 2393,
        "Ġ<": 2394,
        "Ġpain": 2395,
        "ached": 2396,
        "oke": 2397,
        "Ġlonger": 2398,
        "Ġsite": 2399,
        "Ġaccept": 2400,
        "duct": 2401,
        "Ġshoot": 2402,
        "Ġhope": 2403,
        "ript": 2404,
        "Ġsoon": 2405,
        "ights": 2406,
        "ĠAug": 2407,
        "Ġeconomic": 2408,
        "itting": 2409,
        "ĠEl": 2410,
        "Ġcheck": 2411,
        "==": 2412,
        "Ġmoment": 2413,
        "Ġpie": 2414,
        "18": 2415,
        "irm": 2416,
        "Ġblock": 2417,
        "Ġdecl": 2418,
        "Ġconsum": 2419,
        "Ġhigher": 2420,
        "ĠDepartment": 2421,
        "Ġrelig": 2422,
        "Ġwrong": 2423,
        "ĠEm": 2424,
        "ental": 2425,
        "oe": 2426,
        "Ġcred": 2427,
        "ĠHere": 2428,
        "ĠAccording": 2429,
        "Ġtit": 2430,
        "Ġworks": 2431,
        "Ġshare": 2432,
        "ancial": 2433,
        "Ġpotential": 2434,
        "den": 2435,
        "arc": 2436,
        "Ġfocus": 2437,
        "ĠJune": 2438,
        "Ġcirc": 2439,
        "ĠRed": 2440,
        "Ġconsider": 2441,
        "lege": 2442,
        "ĠGoogle": 2443,
        "iding": 2444,
        "Ġparent": 2445,
        "ĠSyri": 2446,
        "Ġheld": 2447,
        "Ġpred": 2448,
        "onse": 2449,
        "Ġfunction": 2450,
        "Ġonline": 2451,
        "lt": 2452,
        "Ġreve": 2453,
        "Ġdi": 2454,
        "ĠOff": 2455,
        "overed": 2456,
        "Ġwords": 2457,
        "alt": 2458,
        "cial": 2459,
        "key": 2460,
        "Ġeduc": 2461,
        "Ġstay": 2462,
        "fect": 2463,
        "hel": 2464,
        "Ġwind": 2465,
        "Ġwebs": 2466,
        "Ġresults": 2467,
        "ularly": 2468,
        "Ġcontract": 2469,
        "fer": 2470,
        "Ġled": 2471,
        "Ġwalk": 2472,
        "ĠAct": 2473,
        "Ġstru": 2474,
        "ĠApr": 2475,
        "Ġrev": 2476,
        "ients": 2477,
        "Ġsold": 2478,
        "Ġreview": 2479,
        "Ġrisk": 2480,
        "asons": 2481,
        "Ġtotal": 2482,
        "Ġminutes": 2483,
        "Ġcode": 2484,
        "Ġarticle": 2485,
        "Ġlear": 2486,
        "ham": 2487,
        "ees": 2488,
        "Ġlaws": 2489,
        "itution": 2490,
        "cil": 2491,
        "omm": 2492,
        "lear": 2493,
        "aut": 2494,
        "ole": 2495,
        "Ġaud": 2496,
        "ilities": 2497,
        "Ġ2011": 2498,
        "Ġce": 2499,
        "Ġage": 2500,
        "uary": 2501,
        "Ġpersonal": 2502,
        "ĠJuly": 2503,
        "Ġapplic": 2504,
        "Ġste": 2505,
        "put": 2506,
        "Ġprim": 2507,
        "In": 2508,
        "anger": 2509,
        "Ġtarget": 2510,
        "Ġservices": 2511,
        "ateg": 2512,
        "Ġanyone": 2513,
        "Ġfavor": 2514,
        "ule": 2515,
        "Ġupd": 2516,
        "Ġpopular": 2517,
        "Ġrate": 2518,
        "haps": 2519,
        "ĠHill": 2520,
        "Ġansw": 2521,
        "uel": 2522,
        "Ġearlier": 2523,
        "apan": 2524,
        "Ġcomput": 2525,
        "ners": 2526,
        "ĠMond": 2527,
        "Ġtechnology": 2528,
        "Ġvol": 2529,
        "Ġexpress": 2530,
        "Ġhy": 2531,
        "....": 2532,
        "ĠCongress": 2533,
        "Ġdead": 2534,
        "Ġden": 2535,
        "Ġnecess": 2536,
        "ĠDes": 2537,
        "rel": 2538,
        "Ġgoal": 2539,
        "Ġexpected": 2540,
        "Ġproblems": 2541,
        "Ġcreated": 2542,
        "aging": 2543,
        "Ġrespect": 2544,
        "Ġreceived": 2545,
        "Ġenvironment": 2546,
        "Ġbase": 2547,
        "25": 2548,
        "ĠAustral": 2549,
        "ude": 2550,
        "Ġpack": 2551,
        "Ġincrease": 2552,
        "ends": 2553,
        "Ġscient": 2554,
        "isl": 2555,
        "Ġport": 2556,
        "Ġsurpr": 2557,
        "St": 2558,
        "iter": 2559,
        "Ġcomment": 2560,
        "reet": 2561,
        "Ġshot": 2562,
        "ĠCont": 2563,
        "____": 2564,
        "ĠGod": 2565,
        "Ġforce": 2566,
        "val": 2567,
        "iple": 2568,
        "Ġeasy": 2569,
        "Ġanti": 2570,
        "Ġet": 2571,
        "Ġways": 2572,
        "Ġprivate": 2573,
        "Ġpur": 2574,
        "Ġquestions": 2575,
        "Ġcannot": 2576,
        "ĠAg": 2577,
        "ĠFriday": 2578,
        "Ġannounced": 2579,
        "hern": 2580,
        "ĠCour": 2581,
        "Ġimpact": 2582,
        "atives": 2583,
        "action": 2584,
        "Ġ@": 2585,
        "ittee": 2586,
        "Ġinvolved": 2587,
        "aving": 2588,
        "eter": 2589,
        "Ġtype": 2590,
        "ples": 2591,
        "**": 2592,
        "aterial": 2593,
        "ĠApril": 2594,
        "Ġdiv": 2595,
        "Ġ197": 2596,
        "EN": 2597,
        "itiz": 2598,
        "Ġlangu": 2599,
        "Ġspeak": 2600,
        "Ġexecut": 2601,
        "ĠEven": 2602,
        "ĠTues": 2603,
        "Ġnearly": 2604,
        "hood": 2605,
        "ires": 2606,
        "Ġexact": 2607,
        "ĠMonday": 2608,
        "ray": 2609,
        "lex": 2610,
        "ĠCount": 2611,
        "Ġmodel": 2612,
        "Ġcivil": 2613,
        "Ġoriginal": 2614,
        "Ġsen": 2615,
        "Ġrelationship": 2616,
        "itten": 2617,
        "Ġinside": 2618,
        "ĠRussia": 2619,
        "Ġstaff": 2620,
        "ĠPal": 2621,
        "ĠTuesday": 2622,
        "Ġterror": 2623,
        "ĠDavid": 2624,
        "Ġcases": 2625,
        "Ġ2010": 2626,
        "ĠJapan": 2627,
        "Ġconcern": 2628,
        "Ġcontent": 2629,
        "ĠQu": 2630,
        "okes": 2631,
        "Ġfans": 2632,
        "lled": 2633,
        "60": 2634,
        "Ġcapt": 2635,
        "na": 2636,
        "Ġcoll": 2637,
        "This": 2638,
        "Ġresponse": 2639,
        "rem": 2640,
        "Ġur": 2641,
        "ĠPaul": 2642,
        "Ġleave": 2643,
        "Ġbroad": 2644,
        "omb": 2645,
        "ips": 2646,
        "ĠAmericans": 2647,
        "icro": 2648,
        "ises": 2649,
        "ĠWed": 2650,
        "Ġarrest": 2651,
        "che": 2652,
        "Ġreports": 2653,
        "eed": 2654,
        "Ġinternational": 2655,
        "cast": 2656,
        "Ġaverage": 2657,
        "ĠFirst": 2658,
        "ĠGl": 2659,
        "Ġworth": 2660,
        "ãģ": 2661,
        "Ġsource": 2662,
        "Ġworked": 2663,
        "bit": 2664,
        "Ġkilled": 2665,
        "ky": 2666,
        "ĠGeor": 2667,
        "Ġbecom": 2668,
        "Ġglobal": 2669,
        "oto": 2670,
        "ams": 2671,
        "Ġliving": 2672,
        "ĠCor": 2673,
        "Ġheart": 2674,
        "Ġnation": 2675,
        "onst": 2676,
        "Ġsoft": 2677,
        "Ġoil": 2678,
        "Ġcal": 2679,
        "ĠSan": 2680,
        "ellig": 2681,
        "ests": 2682,
        "Ġimmedi": 2683,
        "bor": 2684,
        "atural": 2685,
        "Ġestab": 2686,
        "Ġobs": 2687,
        "Ġusers": 2688,
        "joy": 2689,
        "Ġrespond": 2690,
        "Ġsubject": 2691,
        "ging": 2692,
        "ael": 2693,
        "Ġcollect": 2694,
        "ĠSpe": 2695,
        "Ġ40": 2696,
        "Ġtakes": 2697,
        "ites": 2698,
        "Ġability": 2699,
        "Ġclub": 2700,
        "ops": 2701,
        "Ġdirector": 2702,
        "ological": 2703,
        "Ġassoci": 2704,
        "Ġterms": 2705,
        "ĠCalif": 2706,
        "mon": 2707,
        "rought": 2708,
        "ctor": 2709,
        "Ġchance": 2710,
        "ovember": 2711,
        "ech": 2712,
        "ĠHer": 2713,
        "Ġroad": 2714,
        "Ġworkers": 2715,
        "Ġpublished": 2716,
        "Ġcell": 2717,
        "izing": 2718,
        "Ġsqu": 2719,
        "Ġdefin": 2720,
        "ĠSund": 2721,
        "Ġtou": 2722,
        "Ġfinancial": 2723,
        "ĠFeb": 2724,
        "unt": 2725,
        "Ġdecided": 2726,
        "osition": 2727,
        "Ġprice": 2728,
        "Ġweap": 2729,
        "ĠPost": 2730,
        "Ġlack": 2731,
        "Ġmid": 2732,
        "Ġ21": 2733,
        "Ġlog": 2734,
        "Ġmother": 2735,
        "ĠSeptember": 2736,
        "ĠSch": 2737,
        "Ġphone": 2738,
        "Ġbuy": 2739,
        "ĠJanuary": 2740,
        "Ġinflu": 2741,
        "Ġstore": 2742,
        "clus": 2743,
        "Ġforeign": 2744,
        "Ġhappened": 2745,
        "Ġgirl": 2746,
        "Ġgave": 2747,
        "Ġemer": 2748,
        "Ġadm": 2749,
        "Ġrequire": 2750,
        "Ġ}": 2751,
        "Ġfem": 2752,
        "ĠTV": 2753,
        "ills": 2754,
        "\".": 2755,
        "Ġcapital": 2756,
        "ĠNovember": 2757,
        "ĠIslam": 2758,
        "Ġindic": 2759,
        "Ġsituation": 2760,
        "He": 2761,
        "Ġwhose": 2762,
        "Ġ22": 2763,
        "ĠWednes": 2764,
        "Ġcurrently": 2765,
        "based": 2766,
        "Ġmethod": 2767,
        "Ġgoes": 2768,
        "vertise": 2769,
        "Ġmember": 2770,
        "Ġlives": 2771,
        "Ġoffer": 2772,
        "aled": 2773,
        "Ġteams": 2774,
        "rain": 2775,
        "--------": 2776,
        "ĠTw": 2777,
        "ino": 2778,
        "ought": 2779,
        "oved": 2780,
        "ĠAng": 2781,
        "Ġpict": 2782,
        "ĠThurs": 2783,
        "Ġplans": 2784,
        "Ġtal": 2785,
        "Ġmaterial": 2786,
        "Ġnetwork": 2787,
        "ĠWednesday": 2788,
        "Ġbur": 2789,
        "Ġarri": 2790,
        "Ġaffect": 2791,
        "ruction": 2792,
        "order": 2793,
        "ese": 2794,
        "Ġsimple": 2795,
        "Ġturned": 2796,
        "Ġbank": 2797,
        "rect": 2798,
        "Ġareas": 2799,
        "Ġrecogn": 2800,
        "ĠAfric": 2801,
        "Ġevents": 2802,
        "Ġparticip": 2803,
        "Ġmeeting": 2804,
        "Ġill": 2805,
        "Ġintrodu": 2806,
        "fully": 2807,
        "ĠThursday": 2808,
        "Ġnorm": 2809,
        "ĠCourt": 2810,
        "Ġregard": 2811,
        "Ġapproach": 2812,
        "Ġtext": 2813,
        "ĠAugust": 2814,
        "Ġcouple": 2815,
        "Ġemail": 2816,
        "Ġvia": 2817,
        "Ġrace": 2818,
        "Ġhuge": 2819,
        "Ġcareer": 2820,
        "Ġperformance": 2821,
        "Ġcy": 2822,
        "Ġpage": 2823,
        "oud": 2824,
        "load": 2825,
        "ĠEuropean": 2826,
        "Ġtool": 2827,
        "bl": 2828,
        "Ġimprove": 2829,
        "Ġround": 2830,
        "ĠKe": 2831,
        "ety": 2832,
        "Ġfelt": 2833,
        "Ġord": 2834,
        "oo": 2835,
        "\",": 2836,
        "ĠOctober": 2837,
        "fl": 2838,
        "aur": 2839,
        "Ġmis": 2840,
        "Ġquickly": 2841,
        "Ġbuilt": 2842,
        "ĠOf": 2843,
        "40": 2844,
        "Ġadministration": 2845,
        "rown": 2846,
        "aily": 2847,
        "Ġnumbers": 2848,
        "Ġtrade": 2849,
        "Ġvictim": 2850,
        "oor": 2851,
        "avy": 2852,
        "ume": 2853,
        "Ġhon": 2854,
        "ĠCaliforn": 2855,
        "Ġengine": 2856,
        "ĠBritish": 2857,
        "ĠCanada": 2858,
        "ĠSunday": 2859,
        "Ġloss": 2860,
        "Ġpers": 2861,
        "ett": 2862,
        "Ġpull": 2863,
        "apt": 2864,
        "chie": 2865,
        "ĠThen": 2866,
        "Ġdig": 2867,
        "istan": 2868,
        "You": 2869,
        "ructure": 2870,
        "Ġfre": 2871,
        "âĢĿ.": 2872,
        "ĠBlack": 2873,
        "Ġrepe": 2874,
        "Ġeconomy": 2875,
        "Ġboard": 2876,
        "Ġenjoy": 2877,
        "Ġfather": 2878,
        "Ġâ": 2879,
        "face": 2880,
        "Ġproduction": 2881,
        "Ġ23": 2882,
        "Ġheard": 2883,
        "Ġhands": 2884,
        "Ġboy": 2885,
        "Ġsecret": 2886,
        "iction": 2887,
        "Ġwebsite": 2888,
        "Ġcover": 2889,
        "Ġpoll": 2890,
        "Ġspent": 2891,
        "ED": 2892,
        "Ġthous": 2893,
        "cember": 2894,
        "atory": 2895,
        "Ġallowed": 2896,
        "ĠSw": 2897,
        "down": 2898,
        "Ġmatch": 2899,
        "Ġlegisl": 2900,
        "Ġwide": 2901,
        "Wh": 2902,
        "Ġlower": 2903,
        ");": 2904,
        "Ġincluded": 2905,
        "uses": 2906,
        "ĠPat": 2907,
        "ze": 2908,
        "Ġwants": 2909,
        "Ġtown": 2910,
        "orters": 2911,
        "Ġtravel": 2912,
        "Ġperfect": 2913,
        "Ġsepar": 2914,
        "ĠKore": 2915,
        "Ġneigh": 2916,
        "Ġknew": 2917,
        "ences": 2918,
        "ĠCalifornia": 2919,
        "ĠRussian": 2920,
        "ened": 2921,
        "ps": 2922,
        "agement": 2923,
        "Ġvisit": 2924,
        "ĠUK": 2925,
        "ession": 2926,
        "ctions": 2927,
        "estern": 2928,
        "Ġbehav": 2929,
        "ĠInt": 2930,
        "gest": 2931,
        "ĠMark": 2932,
        "ishing": 2933,
        "Ġgets": 2934,
        "ĠTH": 2935,
        "Ġmovement": 2936,
        "Ġtried": 2937,
        "oph": 2938,
        "Ġpopulation": 2939,
        "Ġforces": 2940,
        "anks": 2941,
        "Ġcause": 2942,
        "Ġens": 2943,
        "ĠIS": 2944,
        "Ġbi": 2945,
        "de": 2946,
        "?âĢĿ": 2947,
        "Ġattention": 2948,
        "ris": 2949,
        "ĠDecember": 2950,
        "ĠPar": 2951,
        "Ġparticular": 2952,
        "Ġfear": 2953,
        "Ġlooks": 2954,
        "lin": 2955,
        "Ġlink": 2956,
        "force": 2957,
        "ĠFrom": 2958,
        "ĠIndia": 2959,
        "Ġreach": 2960,
        "Ġbud": 2961,
        "ĠChe": 2962,
        "hic": 2963,
        "Ġprevious": 2964,
        "uk": 2965,
        "ibly": 2966,
        "Ġbrought": 2967,
        "aker": 2968,
        "ening": 2969,
        "ceed": 2970,
        "urd": 2971,
        "Ġvarious": 2972,
        "idents": 2973,
        "][": 2974,
        "Ġgrowth": 2975,
        "field": 2976,
        "Ġmention": 2977,
        "Ġsett": 2978,
        "Ġsize": 2979,
        "sequ": 2980,
        "ĠFin": 2981,
        "Ġtraining": 2982,
        "Ġimage": 2983,
        "Ġprogress": 2984,
        "ĠPark": 2985,
        "ÂŃ": 2986,
        "Ġvo": 2987,
        "undred": 2988,
        "Ġfair": 2989,
        "99": 2990,
        "arily": 2991,
        "yond": 2992,
        "cle": 2993,
        "hold": 2994,
        "Ġmorning": 2995,
        "raz": 2996,
        "ma": 2997,
        "alled": 2998,
        "ĠSenate": 2999,
        "Ġfell": 3000,
        "Ġsong": 3001,
        "idered": 3002,
        "AL": 3003,
        "Ġcontact": 3004,
        "cies": 3005,
        "ground": 3006,
        "ledge": 3007,
        "Ġrac": 3008,
        "Ġdemand": 3009,
        "Ġlearn": 3010,
        "AC": 3011,
        "ĠKing": 3012,
        "'d": 3013,
        "Ġhot": 3014,
        "ĠStreet": 3015,
        "Ġrules": 3016,
        "Ġcitiz": 3017,
        "Ġess": 3018,
        "Ġhor": 3019,
        "inks": 3020,
        "ĠDonald": 3021,
        "Ġlatest": 3022,
        "Ġprep": 3023,
        "ecause": 3024,
        "ĠCons": 3025,
        "ification": 3026,
        "iers": 3027,
        "Ġspeed": 3028,
        "Ġsearch": 3029,
        "Ġleader": 3030,
        "ny": 3031,
        "Ġfast": 3032,
        "ĠIran": 3033,
        "Ġstrugg": 3034,
        "come": 3035,
        "uments": 3036,
        "Ġindepend": 3037,
        "Ġliber": 3038,
        "ĠJew": 3039,
        "het": 3040,
        "Ġupon": 3041,
        "ĠPolice": 3042,
        "Ġfeatures": 3043,
        "aries": 3044,
        "Ġtalking": 3045,
        "Ġwond": 3046,
        "ĠTimes": 3047,
        "Ġcoach": 3048,
        "Ġaddition": 3049,
        "ondon": 3050,
        "rim": 3051,
        "ĠUp": 3052,
        "ĠParty": 3053,
        "ĠTex": 3054,
        "Ġreb": 3055,
        "iant": 3056,
        "vent": 3057,
        "ĠRom": 3058,
        "elligence": 3059,
        "ĠCounty": 3060,
        "Ġlevels": 3061,
        "Ġmach": 3062,
        "Ġslow": 3063,
        "IT": 3064,
        "ille": 3065,
        "Ġ2008": 3066,
        "Ġexam": 3067,
        "Ġcard": 3068,
        "ges": 3069,
        "ĠCenter": 3070,
        "22": 3071,
        "Ġinvestigation": 3072,
        "Ġconsidered": 3073,
        "Ġstar": 3074,
        "Ġachie": 3075,
        "imately": 3076,
        "sych": 3077,
        "Ġmedical": 3078,
        "OS": 3079,
        "ĠSatur": 3080,
        "Ġconduct": 3081,
        "bed": 3082,
        "ope": 3083,
        "ament": 3084,
        "Ġund": 3085,
        "Ġsort": 3086,
        "Ġlanguage": 3087,
        "ĠMcC": 3088,
        "ĠTur": 3089,
        "Ġpen": 3090,
        "IC": 3091,
        "Ġdoll": 3092,
        "Ġsn": 3093,
        "unk": 3094,
        "Ġcritic": 3095,
        "uf": 3096,
        "Ġpaper": 3097,
        "Ġparents": 3098,
        "raq": 3099,
        "Ġprior": 3100,
        "Ġconserv": 3101,
        "ysis": 3102,
        "Ġ>": 3103,
        "ĠSand": 3104,
        "igr": 3105,
        "Ġbox": 3106,
        "ĠLet": 3107,
        "Ġdraw": 3108,
        "Ġsens": 3109,
        "ĠMuslim": 3110,
        "asc": 3111,
        "ĠNet": 3112,
        "ĠMor": 3113,
        "Ġjobs": 3114,
        "Ġsafe": 3115,
        "Ġsystems": 3116,
        "pir": 3117,
        "Ġhear": 3118,
        "Ġdocument": 3119,
        "Ġincreasing": 3120,
        "Ġwritten": 3121,
        "Ġseven": 3122,
        "Ġsexual": 3123,
        "ani": 3124,
        "Ġseek": 3125,
        "ĠSim": 3126,
        "Ġspokes": 3127,
        "Ġeffort": 3128,
        "ĠSaturday": 3129,
        "Ġprevent": 3130,
        "Ġ2009": 3131,
        "Ġscreen": 3132,
        "atform": 3133,
        "ĠOther": 3134,
        "Ġconc": 3135,
        "Ġextreme": 3136,
        "Ġcompletely": 3137,
        "ruary": 3138,
        "rast": 3139,
        "idge": 3140,
        "Ġinn": 3141,
        "Ġserious": 3142,
        "ĠLondon": 3143,
        "If": 3144,
        "Ġbott": 3145,
        "Ġsurve": 3146,
        "ĠLab": 3147,
        "ĠSoc": 3148,
        "Ġrange": 3149,
        "ources": 3150,
        "ĠEast": 3151,
        "Ġeight": 3152,
        "ĠMichael": 3153,
        "Ġson": 3154,
        "Ġ27": 3155,
        "itch": 3156,
        "ux": 3157,
        "ĠIraq": 3158,
        "200": 3159,
        "Ġ28": 3160,
        "uit": 3161,
        "ĠGener": 3162,
        "ining": 3163,
        "Ġinteresting": 3164,
        "Ġregul": 3165,
        "Ġdespite": 3166,
        "ibr": 3167,
        "Ġobv": 3168,
        "ĠRead": 3169,
        "Ġmajority": 3170,
        "reedom": 3171,
        "set": 3172,
        "Ġdoub": 3173,
        "Ġviolence": 3174,
        "ĠMost": 3175,
        "Ġextra": 3176,
        "Ġsociety": 3177,
        "ĠJames": 3178,
        "room": 3179,
        "Ġmessage": 3180,
        "OP": 3181,
        "Ġparticularly": 3182,
        "anced": 3183,
        "Ġclimate": 3184,
        "There": 3185,
        "Ġscience": 3186,
        "ĠPlay": 3187,
        "rench": 3188,
        "Ġopportunity": 3189,
        "Ġcross": 3190,
        "tr": 3191,
        "ico": 3192,
        "Ġjournal": 3193,
        "Ġclaims": 3194,
        "Ġguy": 3195,
        "Ġanswer": 3196,
        "light": 3197,
        "Ġaren": 3198,
        "entially": 3199,
        "ension": 3200,
        "erve": 3201,
        "Ġ26": 3202,
        "ĠRepublicans": 3203,
        "Ġbiggest": 3204,
        "aming": 3205,
        "ari": 3206,
        "Ġcarry": 3207,
        "Ġexperien": 3208,
        "vertisement": 3209,
        "oses": 3210,
        "Ġexactly": 3211,
        "Ġmodern": 3212,
        "ĠFebruary": 3213,
        "eff": 3214,
        "isions": 3215,
        "ĠBill": 3216,
        "Ġquarter": 3217,
        "Ġexcept": 3218,
        "Ġpaid": 3219,
        "Ġrequired": 3220,
        "Ġhundred": 3221,
        "uclear": 3222,
        "Ġofficers": 3223,
        "Ġpractice": 3224,
        "Ġremain": 3225,
        "Ġtable": 3226,
        "US": 3227,
        "lying": 3228,
        "utions": 3229,
        "Ġattacks": 3230,
        "nces": 3231,
        "Ġstories": 3232,
        "pper": 3233,
        "mp": 3234,
        "Ġcertainly": 3235,
        "Ġgas": 3236,
        "Ġcommunic": 3237,
        "illed": 3238,
        "Ġrout": 3239,
        "ĠWhy": 3240,
        "ĠSince": 3241,
        "Ġhistor": 3242,
        "Ġnatural": 3243,
        "Ġlooked": 3244,
        "Ġcrim": 3245,
        "atter": 3246,
        "Ġdefense": 3247,
        "ospital": 3248,
        "Ġsurv": 3249,
        "Ġlay": 3250,
        "Ġuser": 3251,
        "ha": 3252,
        "Ġstuff": 3253,
        "inese": 3254,
        "Ġterm": 3255,
        "Ġimag": 3256,
        "ĠDemocratic": 3257,
        "Ġfinally": 3258,
        "Ġdro": 3259,
        "Ġmiddle": 3260,
        "ĠCoun": 3261,
        "Ġleading": 3262,
        "Ġsometimes": 3263,
        "Ġquality": 3264,
        "Ġmovie": 3265,
        "Ġdescribed": 3266,
        "Ġult": 3267,
        "ĠRec": 3268,
        "Ġconvers": 3269,
        "hib": 3270,
        "ĠMon": 3271,
        "Ġaw": 3272,
        "Ġprison": 3273,
        "aves": 3274,
        "Ġgiving": 3275,
        "Ġstarting": 3276,
        "ĠSer": 3277,
        "ously": 3278,
        "icks": 3279,
        "eth": 3280,
        "Ġshowed": 3281,
        "Ġdetails": 3282,
        "Ġsummer": 3283,
        "Ġchanged": 3284,
        "Ġones": 3285,
        "Ġpan": 3286,
        "Ġregion": 3287,
        "Ġcosts": 3288,
        "erc": 3289,
        "akers": 3290,
        "Ġproducts": 3291,
        "Ġoccur": 3292,
        "Ġnamed": 3293,
        "Ġremains": 3294,
        "Ġprovided": 3295,
        "aught": 3296,
        "uing": 3297,
        "Ġpath": 3298,
        "80": 3299,
        "Ġblood": 3300,
        "Ġdanger": 3301,
        "Ġcomments": 3302,
        "ĠJack": 3303,
        "ĠEvery": 3304,
        "Ġmultiple": 3305,
        "Ġchief": 3306,
        "Ġparts": 3307,
        "ĠMany": 3308,
        "ĠLast": 3309,
        "Ġthinking": 3310,
        "enge": 3311,
        "Ġfix": 3312,
        "coin": 3313,
        "Ġmob": 3314,
        "Ġpurp": 3315,
        "Ġpoor": 3316,
        "Ġdemonst": 3317,
        "Ġgrowing": 3318,
        "ĠGet": 3319,
        "ida": 3320,
        "arr": 3321,
        "Ġeducation": 3322,
        "Ġcontinued": 3323,
        "ĠTexas": 3324,
        "ĠWilliam": 3325,
        "24": 3326,
        "inary": 3327,
        "Ġdamage": 3328,
        "ago": 3329,
        "Ġassist": 3330,
        "ĠRich": 3331,
        "Ġpurch": 3332,
        "Ġwrite": 3333,
        "Ġmaintain": 3334,
        "Ġwriting": 3335,
        "ĠApple": 3336,
        "ĠDis": 3337,
        "Ġimplement": 3338,
        "Ġmill": 3339,
        "urt": 3340,
        "ĠChinese": 3341,
        "Ġwouldn": 3342,
        "omp": 3343,
        "ĠGreen": 3344,
        "fort": 3345,
        "Ġready": 3346,
        "Ġefforts": 3347,
        "Ġvoters": 3348,
        "ban": 3349,
        "ĠIndian": 3350,
        "ĠLeague": 3351,
        "Ġdied": 3352,
        "Ġincreased": 3353,
        "Ġspot": 3354,
        "Ġkids": 3355,
        "Ġculture": 3356,
        "ables": 3357,
        "Ġhous": 3358,
        "mit": 3359,
        "Ġalthough": 3360,
        "Ġcalls": 3361,
        "Ġcamer": 3362,
        "Ġperhaps": 3363,
        "Ġtowards": 3364,
        "Ġrequest": 3365,
        "ĠBel": 3366,
        "Ġitem": 3367,
        "oper": 3368,
        "aly": 3369,
        "Ġreading": 3370,
        "Ġconsist": 3371,
        "oul": 3372,
        "ĠAdd": 3373,
        "ĠOver": 3374,
        "Ġstandard": 3375,
        "Ġeffects": 3376,
        "Ġreality": 3377,
        "Ġbeyond": 3378,
        "Ġselect": 3379,
        "Ġfile": 3380,
        "Ġusually": 3381,
        "Ġalone": 3382,
        "Ġguys": 3383,
        "Ġfootball": 3384,
        "icated": 3385,
        "ĠBo": 3386,
        "Ġspeech": 3387,
        "zz": 3388,
        "arian": 3389,
        "FL": 3390,
        "Ġdirectly": 3391,
        "itute": 3392,
        "Ġsubst": 3393,
        "Ġavoid": 3394,
        "ĠRober": 3395,
        "Ġcele": 3396,
        "sp": 3397,
        "anch": 3398,
        "ĠMart": 3399,
        "Ġplatform": 3400,
        "ĠComp": 3401,
        "Ġcenter": 3402,
        "Ġcouldn": 3403,
        "Ġscene": 3404,
        "egr": 3405,
        "Ġincludes": 3406,
        "inated": 3407,
        "Ġstudent": 3408,
        "iles": 3409,
        "Ġcomplex": 3410,
        "using": 3411,
        "ĠWell": 3412,
        "Ġthroughout": 3413,
        "Ġimmediately": 3414,
        "Ġchalleng": 3415,
        "rowd": 3416,
        "ĠOur": 3417,
        "Ġ(@": 3418,
        "ĠDemocrats": 3419,
        "ĠSuper": 3420,
        "ĠÐ": 3421,
        "Ġunf": 3422,
        "Ġepis": 3423,
        "Ġrob": 3424,
        "ĠII": 3425,
        "Ġil": 3426,
        "Ġrecomm": 3427,
        "Ġclos": 3428,
        "ĠBen": 3429,
        "ara": 3430,
        "Ġcast": 3431,
        "Ġ60": 3432,
        "Ġresearc": 3433,
        "ford": 3434,
        "Ġremember": 3435,
        "Ġchoice": 3436,
        "Ġconcept": 3437,
        "Ġadditional": 3438,
        "ĠMinister": 3439,
        "itor": 3440,
        "Ġcorpor": 3441,
        "Ġver": 3442,
        "Ġgone": 3443,
        "Ġdesigned": 3444,
        "Ġdebate": 3445,
        "Ġwife": 3446,
        "wise": 3447,
        "astic": 3448,
        "Ġofficer": 3449,
        "Ġagency": 3450,
        "Ġsafety": 3451,
        "ports": 3452,
        "Ġten": 3453,
        "Ġfigure": 3454,
        "hest": 3455,
        "Ġahead": 3456,
        "Ġx": 3457,
        "Ġsil": 3458,
        "Ġsle": 3459,
        "Ġpiece": 3460,
        "ĠDay": 3461,
        "Ġsoftware": 3462,
        "rupt": 3463,
        "Ġsell": 3464,
        "imum": 3465,
        "Ġtoward": 3466,
        "Ġopin": 3467,
        "Ġtro": 3468,
        "bur": 3469,
        "aches": 3470,
        "23": 3471,
        "ĠTor": 3472,
        "ilies": 3473,
        "ston": 3474,
        "ampions": 3475,
        "Ġprec": 3476,
        "Ġswe": 3477,
        "ĠAssoci": 3478,
        "Ġut": 3479,
        "Ġcounter": 3480,
        "icient": 3481,
        "agon": 3482,
        "yl": 3483,
        "Ġblog": 3484,
        "Ġoption": 3485,
        "omen": 3486,
        "iment": 3487,
        "ĠVal": 3488,
        "Ġmoved": 3489,
        "aph": 3490,
        "ĠLike": 3491,
        "ression": 3492,
        "Ġreceive": 3493,
        "airs": 3494,
        "Ġpressure": 3495,
        "irth": 3496,
        "ĠServ": 3497,
        "Ġstage": 3498,
        "roy": 3499,
        "adem": 3500,
        "Ġbrain": 3501,
        "atever": 3502,
        "Ġpassed": 3503,
        "Ġthousands": 3504,
        "Ġrelative": 3505,
        "Ġletter": 3506,
        "Ġclean": 3507,
        "Ph": 3508,
        "olute": 3509,
        "Ġappears": 3510,
        "berg": 3511,
        "Ġscore": 3512,
        "BI": 3513,
        "Ġcris": 3514,
        "Ġdark": 3515,
        "ĠFrench": 3516,
        "ĠStar": 3517,
        "Ġlaunch": 3518,
        "Ġrock": 3519,
        "Ġproperty": 3520,
        "Ġalleged": 3521,
        "ĠSci": 3522,
        "Ġdisapp": 3523,
        "Ġtwe": 3524,
        "Ġmeaning": 3525,
        "ĠEnglish": 3526,
        "Ġconditions": 3527,
        "Ġhelped": 3528,
        "Ġmoving": 3529,
        "itation": 3530,
        "just": 3531,
        "add": 3532,
        "Ġsat": 3533,
        "new": 3534,
        "Ġdrive": 3535,
        "AM": 3536,
        "Ġpark": 3537,
        "Ġdevice": 3538,
        "ĠAlthough": 3539,
        "Ġcopy": 3540,
        "Ġdifference": 3541,
        "Ġtouch": 3542,
        "Ġsuspect": 3543,
        "chan": 3544,
        "ĠWind": 3545,
        "Ġreasons": 3546,
        "Ġdog": 3547,
        "Ġign": 3548,
        "yan": 3549,
        "Ġdeg": 3550,
        "urning": 3551,
        "Ġnuclear": 3552,
        "Ġorganization": 3553,
        "rief": 3554,
        "Ġbudget": 3555,
        "ivity": 3556,
        "Ġcommand": 3557,
        "Ġmyself": 3558,
        "Ġbeginning": 3559,
        "Ġfan": 3560,
        "Ġtour": 3561,
        "Ġcentury": 3562,
        "Ġdate": 3563,
        "wood": 3564,
        "EC": 3565,
        "ĠHam": 3566,
        "itness": 3567,
        "Ġnature": 3568,
        "ext": 3569,
        "Ġcharacters": 3570,
        "Ġhappy": 3571,
        "Ġmaybe": 3572,
        "aughter": 3573,
        "Ġcomputer": 3574,
        "men": 3575,
        "ĠAir": 3576,
        "Ġfailed": 3577,
        "Ġencour": 3578,
        "OT": 3579,
        "Ġestim": 3580,
        "ĠGovern": 3581,
        "Ġaim": 3582,
        "ource": 3583,
        "ocked": 3584,
        "Ġwall": 3585,
        "):": 3586,
        "Ġband": 3587,
        "Ġcompared": 3588,
        "Ġ29": 3589,
        "more": 3590,
        "Ġbooks": 3591,
        "?\"": 3592,
        "Ġbattle": 3593,
        "ĠLa": 3594,
        "ĠBecause": 3595,
        "Ġstra": 3596,
        "Ġleague": 3597,
        "Ġshown": 3598,
        "Ġtitle": 3599,
        "lease": 3600,
        "Ġarch": 3601,
        "Ġnom": 3602,
        "Ġpositive": 3603,
        "ĠTom": 3604,
        "aling": 3605,
        "ĠSyria": 3606,
        "Ġcontribut": 3607,
        "Ġlimited": 3608,
        "Ġyes": 3609,
        "Ġeyes": 3610,
        "ĠAdvertisement": 3611,
        "Ġsal": 3612,
        "Ġcollege": 3613,
        "Ġbal": 3614,
        "Ġpresidential": 3615,
        "Ġcandidate": 3616,
        "Ġpowerful": 3617,
        "ufact": 3618,
        "Ġrefer": 3619,
        "Ġnecessary": 3620,
        "Ġconference": 3621,
        "Ġ196": 3622,
        "ĠHigh": 3623,
        "Ġlargest": 3624,
        "iable": 3625,
        "ĠSmith": 3626,
        "Ġcitizens": 3627,
        "orks": 3628,
        "Ġdisp": 3629,
        "ĠCap": 3630,
        "ĠAnt": 3631,
        "Ġforced": 3632,
        "Ġsche": 3633,
        "ĠJer": 3634,
        "Ġnote": 3635,
        "27": 3636,
        "Ġschools": 3637,
        "ĠInternational": 3638,
        "Ġspending": 3639,
        "ĠDef": 3640,
        "enty": 3641,
        "Ġeventually": 3642,
        "Ġanalysis": 3643,
        "Ġfeature": 3644,
        "Ġthrow": 3645,
        "venue": 3646,
        "Ġtreatment": 3647,
        "Ġautom": 3648,
        "ET": 3649,
        "aint": 3650,
        "ĠMex": 3651,
        "Ġfirm": 3652,
        "Ġcat": 3653,
        "Ġexecutive": 3654,
        "They": 3655,
        "Ġaware": 3656,
        "ĠReg": 3657,
        "Ġmix": 3658,
        "igration": 3659,
        "Ġfollowed": 3660,
        "ĠPeople": 3661,
        "Ġmeant": 3662,
        "Ġcool": 3663,
        "Ġreligious": 3664,
        "ĠTod": 3665,
        "Ġcorrect": 3666,
        "Ġdraft": 3667,
        "Ġilleg": 3668,
        "ĠGeorge": 3669,
        "Ġfamilies": 3670,
        "Ġtrust": 3671,
        "bum": 3672,
        "Ġconfir": 3673,
        "Ġgives": 3674,
        "Ġstreng": 3675,
        "Ġallows": 3676,
        "Ġcrowd": 3677,
        "Ġphysical": 3678,
        "45": 3679,
        "ĠDuring": 3680,
        "Ġesc": 3681,
        "Ġfeed": 3682,
        "Ġactions": 3683,
        "Ġeasily": 3684,
        "ĠImage": 3685,
        "board": 3686,
        "orney": 3687,
        "Ġpus": 3688,
        "ĠGermany": 3689,
        "ĠAustralia": 3690,
        "ĠBre": 3691,
        "Ġgrad": 3692,
        "ares": 3693,
        "ĠMet": 3694,
        "Ġyourself": 3695,
        "Ġoverall": 3696,
        "ero": 3697,
        "AP": 3698,
        "ube": 3699,
        "Ġang": 3700,
        "Ġdetail": 3701,
        "ĠSchool": 3702,
        "dd": 3703,
        "rated": 3704,
        "Ġsusp": 3705,
        "iring": 3706,
        "ĠEU": 3707,
        "encies": 3708,
        "Ġpolitics": 3709,
        "Ġdisplay": 3710,
        "cul": 3711,
        "ressed": 3712,
        "Ġsmart": 3713,
        "35": 3714,
        "Ġdise": 3715,
        "ĠRob": 3716,
        "ĠOh": 3717,
        "band": 3718,
        "Ġcentral": 3719,
        "ĠâĢ¢": 3720,
        "riage": 3721,
        "EL": 3722,
        "Ġappeared": 3723,
        "Ġideas": 3724,
        "Ġsenior": 3725,
        "Ġanaly": 3726,
        "ĠAngel": 3727,
        "ĠBer": 3728,
        "Ġuses": 3729,
        "Ġdecades": 3730,
        "ken": 3731,
        "Ġsigned": 3732,
        "aud": 3733,
        "box": 3734,
        "Ġpromot": 3735,
        "Ġsales": 3736,
        "iance": 3737,
        "Ġincome": 3738,
        "Ġnice": 3739,
        "craft": 3740,
        "ĠArab": 3741,
        "Ġweapons": 3742,
        "ram": 3743,
        "ĠBrown": 3744,
        "Ġcredit": 3745,
        "Ġcrisis": 3746,
        "Ġlif": 3747,
        "26": 3748,
        "ID": 3749,
        "ĠGeneral": 3750,
        "ĠÂ£": 3751,
        "ĠEarth": 3752,
        "ĠTrans": 3753,
        "Ġrelated": 3754,
        "Ġhar": 3755,
        "Ġcrime": 3756,
        "Ġunique": 3757,
        "ĠMac": 3758,
        "Ġfrequ": 3759,
        "iny": 3760,
        "ĠChristian": 3761,
        "ĠUs": 3762,
        "Ġnoted": 3763,
        "ĠUnion": 3764,
        "ĠBu": 3765,
        "Ġconflic": 3766,
        "Ġdrop": 3767,
        "itely": 3768,
        "Ġaltern": 3769,
        "Ġdeveloped": 3770,
        "Ġpsych": 3771,
        "rol": 3772,
        "resh": 3773,
        "Ġprojects": 3774,
        "Ġgoals": 3775,
        "Ġbenefits": 3776,
        "Ġobserv": 3777,
        "lements": 3778,
        "ĠGold": 3779,
        "ĠTwo": 3780,
        "Ġcontinues": 3781,
        "ĠArt": 3782,
        "IA": 3783,
        "Ġpeace": 3784,
        "osh": 3785,
        "Ġbeaut": 3786,
        "ĠFranc": 3787,
        "Ġmist": 3788,
        "uty": 3789,
        "ĠFlor": 3790,
        "Ġindividuals": 3791,
        "Ġlic": 3792,
        "Ġrates": 3793,
        "Ġcharge": 3794,
        "Ġrap": 3795,
        "Ġpredict": 3796,
        "ĠCouncil": 3797,
        "Ġchallenge": 3798,
        "ĠYes": 3799,
        "nown": 3800,
        "Ġexpand": 3801,
        "ĠScott": 3802,
        "Ġsto": 3803,
        "onents": 3804,
        "ville": 3805,
        "pre": 3806,
        "Ġfully": 3807,
        "Ġcustomers": 3808,
        "Ġtruth": 3809,
        "Ġadvant": 3810,
        "Ġmeasure": 3811,
        "OM": 3812,
        "Ġintelligence": 3813,
        "Ġrule": 3814,
        "Ġdoor": 3815,
        "Ġlarger": 3816,
        "oti": 3817,
        "Ġapparent": 3818,
        "Ġstraight": 3819,
        "ĠAnother": 3820,
        "urance": 3821,
        "owers": 3822,
        "Ġlines": 3823,
        "oes": 3824,
        "Ġprimary": 3825,
        "part": 3826,
        "ĠLaw": 3827,
        "Ġpreviously": 3828,
        "ĠMag": 3829,
        "Ġbrother": 3830,
        "ĠFollow": 3831,
        "Ġmanager": 3832,
        "Ġemb": 3833,
        "Ġhighly": 3834,
        "change": 3835,
        "ĠAlso": 3836,
        "Ġclearly": 3837,
        "Ġsuccessful": 3838,
        "ki": 3839,
        "Ġcriminal": 3840,
        "Ġreform": 3841,
        "Ġspread": 3842,
        "ĠAlex": 3843,
        "Ġtraff": 3844,
        "orter": 3845,
        "ĠInternet": 3846,
        "ĠYour": 3847,
        "Ġknowledge": 3848,
        "As": 3849,
        "mar": 3850,
        "Ġseemed": 3851,
        "ĠStud": 3852,
        "Ġincident": 3853,
        "Ġweb": 3854,
        "Ġsave": 3855,
        "Ġresources": 3856,
        "ounds": 3857,
        "Ġminor": 3858,
        "Ġreached": 3859,
        "ocks": 3860,
        "Ġgreater": 3861,
        "ota": 3862,
        "ategy": 3863,
        "Ġattract": 3864,
        "Ġkept": 3865,
        "antly": 3866,
        "Ġspir": 3867,
        "Ġarm": 3868,
        "Ġprograms": 3869,
        "dom": 3870,
        "Ġfavorite": 3871,
        "onent": 3872,
        "Ġrare": 3873,
        "Ġorigin": 3874,
        "Ġmanufact": 3875,
        "Ġcolor": 3876,
        "Ġ2007": 3877,
        "while": 3878,
        "ĠAP": 3879,
        "iced": 3880,
        "Ġsend": 3881,
        "secut": 3882,
        "Ġplaces": 3883,
        "sey": 3884,
        "29": 3885,
        "icit": 3886,
        "ĠCr": 3887,
        "Ġsources": 3888,
        "Ġstudies": 3889,
        "Ġfeet": 3890,
        "ĠMatt": 3891,
        "ĠEngland": 3892,
        "Ġshooting": 3893,
        "ĠOp": 3894,
        "Ġemot": 3895,
        "net": 3896,
        "Ġuns": 3897,
        "Ġknows": 3898,
        "ĠHillary": 3899,
        "Ġprem": 3900,
        "roll": 3901,
        "Ġregular": 3902,
        "term": 3903,
        "bon": 3904,
        "Ġrise": 3905,
        "Ġactivity": 3906,
        "Ġstatus": 3907,
        "Ġpun": 3908,
        "iders": 3909,
        "levision": 3910,
        "wide": 3911,
        "Ġprint": 3912,
        "Ġlaun": 3913,
        "28": 3914,
        "ĠChic": 3915,
        "Ġnormal": 3916,
        "ingly": 3917,
        "ĠMo": 3918,
        "Ġcaused": 3919,
        "Ġcities": 3920,
        "Ġfighting": 3921,
        "Ġalbum": 3922,
        "Ġowners": 3923,
        "Ġliter": 3924,
        "olic": 3925,
        "Ġfine": 3926,
        "ado": 3927,
        "Ġintegr": 3928,
        "ĠMod": 3929,
        "uana": 3930,
        "Ġoptions": 3931,
        "Ġspend": 3932,
        "ING": 3933,
        "Ġclaimed": 3934,
        "ĠSam": 3935,
        "Ġprices": 3936,
        "Ġended": 3937,
        "ifying": 3938,
        "que": 3939,
        "usion": 3940,
        "ĠPre": 3941,
        "Ġresearchers": 3942,
        "Ġvoice": 3943,
        "EO": 3944,
        "Ġcalling": 3945,
        "ength": 3946,
        "Ġshut": 3947,
        "Ġreflect": 3948,
        "Ġfa": 3949,
        "lick": 3950,
        "rs": 3951,
        "iled": 3952,
        "ĠPhil": 3953,
        "Ġvirt": 3954,
        "Ġfemale": 3955,
        "Ġhappens": 3956,
        "Ġpolicies": 3957,
        "Ġenem": 3958,
        "Ġorganiz": 3959,
        "ĠBay": 3960,
        "Ġemployees": 3961,
        "Ġplant": 3962,
        "Ġhaven": 3963,
        "ĠFlorida": 3964,
        "ĠSun": 3965,
        "Ġhospital": 3966,
        "Ġpatients": 3967,
        "âĢĿ,": 3968,
        "uman": 3969,
        "iverse": 3970,
        "roid": 3971,
        "Ġadding": 3972,
        "Ġnames": 3973,
        "ribution": 3974,
        "Ġgrand": 3975,
        "Ġpros": 3976,
        "100": 3977,
        "alse": 3978,
        "Ġcharges": 3979,
        "Ġslight": 3980,
        "oles": 3981,
        "Ġabsolute": 3982,
        "Ġbasic": 3983,
        "Ġtrou": 3984,
        "Ġconcerns": 3985,
        "ijuana": 3986,
        "Ġacqu": 3987,
        "Ġsupposed": 3988,
        "Ġgreen": 3989,
        "Ġcreating": 3990,
        "ĠPort": 3991,
        "Ġtraditional": 3992,
        "vere": 3993,
        "Ġjump": 3994,
        "Ġraised": 3995,
        "Ġscen": 3996,
        "ĠChicago": 3997,
        "Ġfunding": 3998,
        "ĠLou": 3999,
        "Ġstyle": 4000,
        "Ġseeing": 4001,
        "ona": 4002,
        "ipp": 4003,
        "ica": 4004,
        "Ġlik": 4005,
        "Ġauthorities": 4006,
        "Ġcommer": 4007,
        "gen": 4008,
        "Ġmechan": 4009,
        "inger": 4010,
        "Ġminister": 4011,
        "Ġfreedom": 4012,
        "70": 4013,
        "ĠMike": 4014,
        "ĠSl": 4015,
        ".âĢĻ": 4016,
        "Ġbeat": 4017,
        "ĠFrance": 4018,
        "ya": 4019,
        "ĠRel": 4020,
        "Ġimpl": 4021,
        "see": 4022,
        "Ġleaving": 4023,
        "Ġir": 4024,
        "RE": 4025,
        "ĠAtt": 4026,
        "21": 4027,
        "Ġbeg": 4028,
        "Ġactual": 4029,
        "Ġstation": 4030,
        "ĠSecret": 4031,
        "Ch": 4032,
        "ĠSub": 4033,
        "Ġwait": 4034,
        "org": 4035,
        "ĠAM": 4036,
        "Ġeth": 4037,
        "Ġposted": 4038,
        "Ġbirth": 4039,
        "Ġagreement": 4040,
        "Ġcry": 4041,
        "ĠBit": 4042,
        "Ġweight": 4043,
        "Ġpush": 4044,
        "Ġensure": 4045,
        "Ġappl": 4046,
        "ĠMil": 4047,
        "Ġweekend": 4048,
        "mark": 4049,
        "Ġeye": 4050,
        "ĠStep": 4051,
        "33": 4052,
        "ĠOnce": 4053,
        "Ġadop": 4054,
        "ĠHealth": 4055,
        "Ġmer": 4056,
        "ĠMal": 4057,
        "Ġcars": 4058,
        "Ġrevealed": 4059,
        "Ġestabl": 4060,
        "Ġrank": 4061,
        "Ġbehavior": 4062,
        "AD": 4063,
        "istry": 4064,
        "itude": 4065,
        "Ġgold": 4066,
        "Ġvalues": 4067,
        "ĠMicro": 4068,
        "Ġoffered": 4069,
        "Ġmostly": 4070,
        "Ġchoose": 4071,
        "earch": 4072,
        "Ġrecords": 4073,
        "OU": 4074,
        "Ġvac": 4075,
        "rian": 4076,
        "ipped": 4077,
        "Ġwilling": 4078,
        "ront": 4079,
        "Ġapplication": 4080,
        "ĠAre": 4081,
        "Ġperm": 4082,
        "www": 4083,
        "ĠInstead": 4084,
        ".'": 4085,
        "Ġdetermin": 4086,
        "ĠWall": 4087,
        "Ġpicture": 4088,
        "Ġinstall": 4089,
        "acing": 4090,
        "Ġpropos": 4091,
        "Ġstrategy": 4092,
        "ĠBush": 4093,
        "Ġcommit": 4094,
        "Ġadult": 4095,
        "Ġbelieved": 4096,
        "ĠBig": 4097,
        "Ġbrief": 4098,
        "ĠTer": 4099,
        "arliam": 4100,
        "igned": 4101,
        "ĠDel": 4102,
        "ĠPress": 4103,
        "Ġwonder": 4104,
        "IL": 4105,
        "ection": 4106,
        "inn": 4107,
        "Ġmassive": 4108,
        "Ġdire": 4109,
        "Ġwhatever": 4110,
        "90": 4111,
        "cher": 4112,
        "soft": 4113,
        "Ġqual": 4114,
        "500": 4115,
        "ste": 4116,
        "Ġlearned": 4117,
        "Ġdevices": 4118,
        "Ġwild": 4119,
        "ĠPri": 4120,
        "Ġenforce": 4121,
        "ĠEv": 4122,
        "pri": 4123,
        "Ð¾": 4124,
        "But": 4125,
        "Ġwat": 4126,
        "ĠLiber": 4127,
        "Ġlawy": 4128,
        "Ġarrested": 4129,
        "Ġmount": 4130,
        "Ġstreet": 4131,
        "Ġinfluence": 4132,
        "Ġfeeling": 4133,
        "ĠUnder": 4134,
        "ĠTHE": 4135,
        "Ġparties": 4136,
        "Ġtemper": 4137,
        "Ġproduced": 4138,
        "Ġprovides": 4139,
        "Ġnegoti": 4140,
        "ĠInc": 4141,
        "Ġteac": 4142,
        "arliament": 4143,
        "Ġwhom": 4144,
        "Ġborder": 4145,
        "SA": 4146,
        "Ġoperations": 4147,
        "ae": 4148,
        "Ġenter": 4149,
        "ĠCommission": 4150,
        "Ġshowing": 4151,
        "ĠJohnson": 4152,
        "Ġjudge": 4153,
        "cont": 4154,
        "Ġconfirmed": 4155,
        "Ġruns": 4156,
        "Ġcritical": 4157,
        "ented": 4158,
        "orial": 4159,
        "Ġdistrict": 4160,
        "Ġproduce": 4161,
        "ĠKorea": 4162,
        "ĠWestern": 4163,
        "ĠCommittee": 4164,
        "Ġmission": 4165,
        "ription": 4166,
        "Ġlose": 4167,
        "ĠMad": 4168,
        "ĠFound": 4169,
        "aked": 4170,
        "Ġtend": 4171,
        "Ġresidents": 4172,
        "Ġassault": 4173,
        "aby": 4174,
        "Ġimages": 4175,
        "Ġasking": 4176,
        "ugg": 4177,
        "Ġdream": 4178,
        "Ġsection": 4179,
        "Ġ;": 4180,
        "estic": 4181,
        "ĠPhoto": 4182,
        "Ġetc": 4183,
        "Ġcru": 4184,
        "ĠJustice": 4185,
        "ĠGreat": 4186,
        "rav": 4187,
        "point": 4188,
        "Ġcelebr": 4189,
        "Ġdebt": 4190,
        "ords": 4191,
        "Ġdrink": 4192,
        "Ġopposition": 4193,
        "ĠChris": 4194,
        "ĠPalest": 4195,
        "Ġbenefit": 4196,
        "Ġbrand": 4197,
        "Ġindependent": 4198,
        "Ġpattern": 4199,
        "Ġfat": 4200,
        "Ġdigital": 4201,
        "rows": 4202,
        "What": 4203,
        "ĠFrancis": 4204,
        "ags": 4205,
        "ocr": 4206,
        "Ġdollars": 4207,
        "Ġeffective": 4208,
        "Ġcore": 4209,
        "Ġsolution": 4210,
        "no": 4211,
        "icial": 4212,
        "Ġdefend": 4213,
        "ĠDist": 4214,
        "amb": 4215,
        "abor": 4216,
        "Ġopening": 4217,
        "Ġear": 4218,
        "cell": 4219,
        "Ġinterested": 4220,
        "Ġadvoc": 4221,
        "ĠSecurity": 4222,
        "Ġkick": 4223,
        "Ġrestrict": 4224,
        "Ġhero": 4225,
        "Ġlearning": 4226,
        "ĠTy": 4227,
        "ograph": 4228,
        "Ġvill": 4229,
        "ĠThose": 4230,
        "====": 4231,
        "Ġmarriage": 4232,
        "Ġtypes": 4233,
        "Ġhighest": 4234,
        "Ġinvestment": 4235,
        "ĠGame": 4236,
        "Ġresponsible": 4237,
        "ĠCup": 4238,
        "icians": 4239,
        "ĠNFL": 4240,
        "Ġ80": 4241,
        "Ġworse": 4242,
        "ĠOffice": 4243,
        "ĠAny": 4244,
        "Ġtrial": 4245,
        "Ġoffers": 4246,
        "ĠSanders": 4247,
        "mine": 4248,
        "Ġreplace": 4249,
        "That": 4250,
        "Ġmemory": 4251,
        "ipe": 4252,
        "Ġagreed": 4253,
        "Ġmur": 4254,
        "umn": 4255,
        "rial": 4256,
        "ĠWindows": 4257,
        "ties": 4258,
        "Ġ31": 4259,
        "Ġtrain": 4260,
        "Ġmap": 4261,
        "Ġheavy": 4262,
        "hicle": 4263,
        "Ġoccas": 4264,
        "Ġfit": 4265,
        "Ġchair": 4266,
        "Ġtick": 4267,
        "Ġproposed": 4268,
        "Ġgenerally": 4269,
        "Ġmillions": 4270,
        "uries": 4271,
        "Ġcondition": 4272,
        "Ġdaily": 4273,
        "illing": 4274,
        "ĠSee": 4275,
        "iation": 4276,
        "Ġchem": 4277,
        "Ġdefe": 4278,
        "ĠVir": 4279,
        "Ġtelevision": 4280,
        "Ġbasis": 4281,
        "ĠÃ": 4282,
        "Ġprotest": 4283,
        "gency": 4284,
        "ĠCommun": 4285,
        "Ġopinion": 4286,
        "ĠHall": 4287,
        "Ġexplained": 4288,
        "ĠCle": 4289,
        "Ġjoin": 4290,
        "Ġmale": 4291,
        "And": 4292,
        "ĠDirect": 4293,
        "Ġmiles": 4294,
        "Ġload": 4295,
        "Ġtheory": 4296,
        "ĠAc": 4297,
        "Ġbecomes": 4298,
        "Ġreject": 4299,
        "Ġachieve": 4300,
        "Ġonto": 4301,
        "CC": 4302,
        "well": 4303,
        "Ġpartners": 4304,
        "BA": 4305,
        "Ġdestroy": 4306,
        "oly": 4307,
        "ĠPet": 4308,
        "Ġadvantage": 4309,
        "Ġassociated": 4310,
        "Ġice": 4311,
        "vest": 4312,
        "ĠTre": 4313,
        "ĠBoth": 4314,
        "rate": 4315,
        "outhern": 4316,
        "ĠUk": 4317,
        "ĠFox": 4318,
        "Ġhundreds": 4319,
        "Ġspecies": 4320,
        "Ġder": 4321,
        "Ġassum": 4322,
        "Ġannounce": 4323,
        "Ġvs": 4324,
        "aks": 4325,
        "Ġobtain": 4326,
        "Ġsurround": 4327,
        "Ġdouble": 4328,
        "Ġ35": 4329,
        "Ġcoal": 4330,
        "ĠIslamic": 4331,
        "Ġunderstanding": 4332,
        "azing": 4333,
        "icip": 4334,
        "Ġphoto": 4335,
        "orthern": 4336,
        "coming": 4337,
        "Ġmanagement": 4338,
        "ĠRobert": 4339,
        "ĠDet": 4340,
        "Ġopened": 4341,
        "ĠToday": 4342,
        "44": 4343,
        "Ġspl": 4344,
        "ĠBank": 4345,
        "eline": 4346,
        "witch": 4347,
        "Ġship": 4348,
        "ander": 4349,
        "Ġeasier": 4350,
        "Ġthus": 4351,
        "Ġelectric": 4352,
        "Ġaccused": 4353,
        "Ġunlike": 4354,
        "ĠJud": 4355,
        "Ġbecoming": 4356,
        "Ġborn": 4357,
        "Ġmarijuana": 4358,
        "ĠProf": 4359,
        "ĠMer": 4360,
        "ios": 4361,
        "Ġillegal": 4362,
        "known": 4363,
        "ĠUN": 4364,
        "Ġ90": 4365,
        "Ġlegislation": 4366,
        "ĠOut": 4367,
        "Ġlimit": 4368,
        "Ġinitial": 4369,
        "olf": 4370,
        "Ġsleep": 4371,
        "Ġframe": 4372,
        "oom": 4373,
        "Ġ2006": 4374,
        "Ġcontrovers": 4375,
        "Ġbottom": 4376,
        "ĠDespite": 4377,
        "ĠThom": 4378,
        "Ġwealth": 4379,
        "Ġprofessional": 4380,
        "Ġnine": 4381,
        "met": 4382,
        "Ġstrik": 4383,
        "Ġmachine": 4384,
        "ĠCanadian": 4385,
        "Ġharm": 4386,
        "Ġnegative": 4387,
        "ference": 4388,
        "Ġdepartment": 4389,
        "Ġneighbor": 4390,
        "Ġdocuments": 4391,
        "Ġscientists": 4392,
        "ĠMiss": 4393,
        "BS": 4394,
        "Ġresist": 4395,
        "Ġcamera": 4396,
        "ĠWil": 4397,
        "Ġpurpose": 4398,
        "AA": 4399,
        "Ġsolid": 4400,
        "bert": 4401,
        "Ġincred": 4402,
        "ih": 4403,
        "ortunately": 4404,
        "Ġserved": 4405,
        "ĠJim": 4406,
        "Ġserve": 4407,
        "ĠInstitute": 4408,
        "Ġextremely": 4409,
        "ĠBritain": 4410,
        "Ġamb": 4411,
        "Ġreturned": 4412,
        "iful": 4413,
        "Ġwinning": 4414,
        "Ġreduce": 4415,
        "ĠVer": 4416,
        "ĠLeg": 4417,
        "ĠKen": 4418,
        "Ġnotice": 4419,
        "house": 4420,
        "Ġshared": 4421,
        "Ġbed": 4422,
        "Ġge": 4423,
        "Ġactive": 4424,
        "za": 4425,
        "Ġlocation": 4426,
        "Ġrat": 4427,
        "Ġbelief": 4428,
        "Ġvictory": 4429,
        "odes": 4430,
        "Ġepisode": 4431,
        "ĠLos": 4432,
        "lant": 4433,
        "32": 4434,
        "atically": 4435,
        "ĠPlease": 4436,
        "Ġvictims": 4437,
        "Ġcommunities": 4438,
        "Ġexisting": 4439,
        "Ġcomfort": 4440,
        "Ġnotes": 4441,
        "ĠTim": 4442,
        "Ġunc": 4443,
        "istics": 4444,
        "Ġaudience": 4445,
        "GB": 4446,
        "Ġleadership": 4447,
        "Ġdoubt": 4448,
        "ĠBur": 4449,
        "ĠJones": 4450,
        "FC": 4451,
        "ĠCarol": 4452,
        "Ġargument": 4453,
        "Ġinstance": 4454,
        "Ġbackground": 4455,
        "ĠSil": 4456,
        "ĠTheir": 4457,
        "Ġexplain": 4458,
        "Ġteach": 4459,
        "Ġchurch": 4460,
        "Ġdism": 4461,
        "rad": 4462,
        "ĠYet": 4463,
        "ghan": 4464,
        "Ġputting": 4465,
        "Ġwatching": 4466,
        "Ġran": 4467,
        "Ġinternet": 4468,
        "Ġseparate": 4469,
        "asy": 4470,
        "andom": 4471,
        "Ġcoverage": 4472,
        "Ġdefinitely": 4473,
        "Ġhearing": 4474,
        "75": 4475,
        "acity": 4476,
        "ĠPM": 4477,
        "Ġmobile": 4478,
        "lands": 4479,
        "36": 4480,
        "works": 4481,
        "Ġfaith": 4482,
        "ears": 4483,
        "how": 4484,
        "inct": 4485,
        "equ": 4486,
        "Ġdie": 4487,
        "Ġfresh": 4488,
        "Ġfalse": 4489,
        "Ġtrend": 4490,
        "do": 4491,
        "Ġbomb": 4492,
        "ĠQue": 4493,
        "ga": 4494,
        "Ġviews": 4495,
        "iller": 4496,
        "Ġsites": 4497,
        "OL": 4498,
        "Ġpet": 4499,
        "Ġconservative": 4500,
        "Ġdrugs": 4501,
        "ĠIsraeli": 4502,
        "zen": 4503,
        "Ġpurs": 4504,
        "Ġmax": 4505,
        "iliar": 4506,
        "Ġcommittee": 4507,
        "Ġlaunched": 4508,
        "Ġsupporters": 4509,
        "ography": 4510,
        "ĠFBI": 4511,
        "Ġissued": 4512,
        "Ġdangerous": 4513,
        "Ġtraffic": 4514,
        "Ġvehicle": 4515,
        "la": 4516,
        "ĠJeff": 4517,
        "Ġlabor": 4518,
        "Ġdirection": 4519,
        "ĠMicrosoft": 4520,
        "Ġfloor": 4521,
        "ĠConst": 4522,
        "Ġdriver": 4523,
        "ĠChurch": 4524,
        "Ġcontain": 4525,
        "Ġcards": 4526,
        "inate": 4527,
        "ĠInter": 4528,
        "Ġworst": 4529,
        "Ġstated": 4530,
        "Ġradio": 4531,
        "Ġdisease": 4532,
        "Ġrepeated": 4533,
        "ĠBack": 4534,
        "ampionship": 4535,
        "Ġsun": 4536,
        "scrib": 4537,
        "Ġsuggested": 4538,
        "Ġcompetition": 4539,
        "Ġnovel": 4540,
        "Ġnorth": 4541,
        "ĠGood": 4542,
        "resp": 4543,
        "gers": 4544,
        "ãĤ": 4545,
        "ctors": 4546,
        "Ġreact": 4547,
        "ario": 4548,
        "Ġcommercial": 4549,
        "inter": 4550,
        "Ġ70": 4551,
        "ĠFrank": 4552,
        "Ġrefere": 4553,
        "!!": 4554,
        "orrow": 4555,
        "ĠFore": 4556,
        "ĠSur": 4557,
        "Ġitems": 4558,
        "Ġspoke": 4559,
        "gu": 4560,
        "PS": 4561,
        "38": 4562,
        "Ġnor": 4563,
        "________": 4564,
        "which": 4565,
        "Ġtask": 4566,
        "going": 4567,
        "Ġdecade": 4568,
        "ĠChar": 4569,
        "Ġstructure": 4570,
        "ius": 4571,
        "Ġclosed": 4572,
        "vention": 4573,
        "Ġsmaller": 4574,
        "anted": 4575,
        "ribute": 4576,
        "Ġentirely": 4577,
        "Ġcharged": 4578,
        "Ġdriving": 4579,
        "ĠWho": 4580,
        "ibrary": 4581,
        "ĠSup": 4582,
        "Ġcandidates": 4583,
        "Ġded": 4584,
        "Ġtransfer": 4585,
        "ĠRyan": 4586,
        "ĠCur": 4587,
        "ĠPC": 4588,
        "hem": 4589,
        "Ġanimals": 4590,
        "Ġhus": 4591,
        "Ġsurface": 4592,
        "NN": 4593,
        "iling": 4594,
        "ĠUkrain": 4595,
        "ĠST": 4596,
        "ĠGree": 4597,
        "Ġtelling": 4598,
        "ulf": 4599,
        "Ġaspect": 4600,
        "bing": 4601,
        "Ġcash": 4602,
        "Ġhack": 4603,
        "ulated": 4604,
        "semb": 4605,
        "Ġtools": 4606,
        "rick": 4607,
        "Ġdiscovered": 4608,
        "andon": 4609,
        "48": 4610,
        "Ġconcerned": 4611,
        "Ġtransport": 4612,
        "Ġsupported": 4613,
        "icy": 4614,
        "Ġdaughter": 4615,
        "Ġblue": 4616,
        "Ġplease": 4617,
        "overy": 4618,
        "ĠRichard": 4619,
        "oyal": 4620,
        "Ġcaught": 4621,
        "Ġolder": 4622,
        "Ġactivities": 4623,
        "ception": 4624,
        "Ġcontext": 4625,
        "Ġfinding": 4626,
        "Ġgay": 4627,
        "Ġplays": 4628,
        "ĠDec": 4629,
        "Ġrequires": 4630,
        "Ġcompar": 4631,
        "Ġrestaur": 4632,
        "azon": 4633,
        "ĠJo": 4634,
        "Ġfarm": 4635,
        "kins": 4636,
        "iest": 4637,
        "tered": 4638,
        "Ġstrength": 4639,
        "izes": 4640,
        "night": 4641,
        "ĠPak": 4642,
        "Ġexerc": 4643,
        "Ġwel": 4644,
        "Ġconsequ": 4645,
        "Ġannual": 4646,
        "Ġgeneration": 4647,
        "Ġcateg": 4648,
        "EM": 4649,
        "Ġtesting": 4650,
        "rey": 4651,
        "!âĢĿ": 4652,
        "Ġstock": 4653,
        "Ġstrateg": 4654,
        "phone": 4655,
        "Ġmurder": 4656,
        "Ġconstruction": 4657,
        "ĠLouis": 4658,
        "Ġraise": 4659,
        "ĠRem": 4660,
        "gl": 4661,
        "udd": 4662,
        "Ġfuel": 4663,
        "ĠAfrica": 4664,
        "Ġbusinesses": 4665,
        "Ġlargely": 4666,
        "ava": 4667,
        "annel": 4668,
        "ici": 4669,
        "eal": 4670,
        "osure": 4671,
        "but": 4672,
        "Ġafford": 4673,
        "Ġaccur": 4674,
        "Ġallowing": 4675,
        "ĠAfghan": 4676,
        "Ġtruly": 4677,
        "ĠNor": 4678,
        "PA": 4679,
        "Ġbelieves": 4680,
        "ossible": 4681,
        "ĠVirgin": 4682,
        "ĠAfrican": 4683,
        "oman": 4684,
        "NA": 4685,
        "arant": 4686,
        "ĠJoe": 4687,
        "ĠGroup": 4688,
        "Ġdecisions": 4689,
        "ĠJewish": 4690,
        "olly": 4691,
        "itable": 4692,
        "Ġtim": 4693,
        "Ġholding": 4694,
        "Ġwitness": 4695,
        "ada": 4696,
        "ait": 4697,
        "ĠRock": 4698,
        "igrants": 4699,
        "Ġinsurance": 4700,
        "ĠSal": 4701,
        "Ġjustice": 4702,
        "Ġguess": 4703,
        "ĠGOP": 4704,
        "Ġscale": 4705,
        "Ġsequ": 4706,
        "ĠMartin": 4707,
        "cknow": 4708,
        "34": 4709,
        "Ġphil": 4710,
        "Ġunit": 4711,
        "55": 4712,
        "ĠTeam": 4713,
        "âĢľ": 4714,
        "Ġplaced": 4715,
        "Ġplanning": 4716,
        "ĠAssociation": 4717,
        "Ġlength": 4718,
        "Ġmentioned": 4719,
        "Ġtells": 4720,
        "ancy": 4721,
        "Ġattend": 4722,
        "Ġinjury": 4723,
        "ĠFire": 4724,
        "cript": 4725,
        "Ġsan": 4726,
        "ĠMont": 4727,
        "ST": 4728,
        "spe": 4729,
        "bre": 4730,
        "ĠKh": 4731,
        "ocracy": 4732,
        "pective": 4733,
        "icon": 4734,
        "Ġpresence": 4735,
        "Ġwaiting": 4736,
        "Ġrough": 4737,
        "Ġhasn": 4738,
        "ĠGovernment": 4739,
        "nel": 4740,
        "Ġspokesman": 4741,
        "anging": 4742,
        "Ġcatch": 4743,
        "Ġestablish": 4744,
        "Ġiniti": 4745,
        "Ġdeliver": 4746,
        "âĢĶâĢĶ": 4747,
        "ĠFe": 4748,
        "Ġmissing": 4749,
        "ĠMP": 4750,
        "ĠAngeles": 4751,
        "ĠIr": 4752,
        "igan": 4753,
        "Ġupdate": 4754,
        "ĠPalestin": 4755,
        "Ġestablished": 4756,
        "Ġinterests": 4757,
        "Ġconflict": 4758,
        "Ðµ": 4759,
        "Ġrefuge": 4760,
        "37": 4761,
        "Ġjoined": 4762,
        "Ð°": 4763,
        "Ġcancer": 4764,
        "Ġ2005": 4765,
        "ĠJapanese": 4766,
        "Ġabuse": 4767,
        "isation": 4768,
        "Ġintroduced": 4769,
        "Ġbanks": 4770,
        "cks": 4771,
        "Ġdownload": 4772,
        "Ġearn": 4773,
        "azine": 4774,
        "Ġrecommend": 4775,
        "Ġfant": 4776,
        "Ġproviding": 4777,
        "ĠJose": 4778,
        "Ġhomes": 4779,
        "Ġmeasures": 4780,
        "ĠThomas": 4781,
        "onto": 4782,
        "Ġkid": 4783,
        "Ġuseful": 4784,
        "ĠCEO": 4785,
        "SP": 4786,
        "issions": 4787,
        "Ġconversation": 4788,
        "Ġsports": 4789,
        "ĠTime": 4790,
        "ady": 4791,
        "ĠWeb": 4792,
        "Ġassess": 4793,
        "onym": 4794,
        "cient": 4795,
        "formation": 4796,
        "Ġstopped": 4797,
        "Ġremoved": 4798,
        "Ġeat": 4799,
        "Ġhair": 4800,
        "ĠPakistan": 4801,
        "ĠMexico": 4802,
        "itz": 4803,
        "Ġoperation": 4804,
        "Ġenforcement": 4805,
        "39": 4806,
        "ĠAndroid": 4807,
        "Ġdiscussion": 4808,
        "vant": 4809,
        "\":": 4810,
        "Ġ2018": 4811,
        "Ġmodels": 4812,
        "Ġhousing": 4813,
        "Ġnewsp": 4814,
        "bour": 4815,
        "ĠSupreme": 4816,
        "ications": 4817,
        "ula": 4818,
        "Ġoffensive": 4819,
        "win": 4820,
        "Ġsetting": 4821,
        "Ġidentified": 4822,
        "oted": 4823,
        "Ġoccup": 4824,
        "ĠMary": 4825,
        "Ġfourth": 4826,
        "Ġ2000": 4827,
        "ronic": 4828,
        "Ġobvious": 4829,
        "Ġgirls": 4830,
        "Ġearth": 4831,
        "Ġstick": 4832,
        "kin": 4833,
        "season": 4834,
        "Ġcells": 4835,
        "real": 4836,
        "Ġsouth": 4837,
        "Ġmanaged": 4838,
        "Ġfiles": 4839,
        "Ġexclus": 4840,
        "Ġveter": 4841,
        "owl": 4842,
        "what": 4843,
        "hi": 4844,
        "Ġcook": 4845,
        "verse": 4846,
        "Ġfocused": 4847,
        "ĠBern": 4848,
        "Ġcommitted": 4849,
        "Ġfigures": 4850,
        "Ġarrived": 4851,
        "ĠResearch": 4852,
        "Ġtherefore": 4853,
        "ulate": 4854,
        "Ġbul": 4855,
        "Ġfinished": 4856,
        "Ġspirit": 4857,
        "Ġappropri": 4858,
        "Ġacknow": 4859,
        "Ġtough": 4860,
        "Ġprefer": 4861,
        "Ġconclud": 4862,
        "Ġclick": 4863,
        "ading": 4864,
        "oms": 4865,
        "Ġkeeping": 4866,
        "ĠJon": 4867,
        "Ġ32": 4868,
        "Ġskills": 4869,
        "Ġpartner": 4870,
        "eah": 4871,
        "ĠPut": 4872,
        "enses": 4873,
        "lig": 4874,
        "itutional": 4875,
        "agn": 4876,
        "Ġsurvey": 4877,
        "Ġfeels": 4878,
        "outs": 4879,
        "47": 4880,
        "ups": 4881,
        "Don": 4882,
        "Ġotherwise": 4883,
        "ĠLu": 4884,
        "anda": 4885,
        "apped": 4886,
        "ãĥ": 4887,
        "Ġtransl": 4888,
        "ka": 4889,
        "ĠPeter": 4890,
        "Ġexchange": 4891,
        "place": 4892,
        "Ġidentity": 4893,
        "Ġfunds": 4894,
        "ĠSol": 4895,
        "Ġslightly": 4896,
        "Ġrelatively": 4897,
        "Ġowner": 4898,
        "wing": 4899,
        "gar": 4900,
        "ils": 4901,
        "ĠArmy": 4902,
        "Ġsteps": 4903,
        "uct": 4904,
        "Ġprotection": 4905,
        "Ġdepend": 4906,
        "ĠDen": 4907,
        "ĠPrime": 4908,
        "ication": 4909,
        "Ġdetect": 4910,
        "Ġtrip": 4911,
        "Ġhttps": 4912,
        "Ġphotos": 4913,
        "Ġtweet": 4914,
        "rency": 4915,
        "Ġconnection": 4916,
        "ighter": 4917,
        "icles": 4918,
        "49": 4919,
        "ĠPublic": 4920,
        "Ġsust": 4921,
        "Ġcorner": 4922,
        "Ġ45": 4923,
        "Ġroll": 4924,
        "Ġweak": 4925,
        "isf": 4926,
        "Ġelements": 4927,
        "Ġhusband": 4928,
        "rd": 4929,
        "Ġstrike": 4930,
        "dden": 4931,
        "stream": 4932,
        "Ġcollection": 4933,
        "Ġsuggests": 4934,
        "ancing": 4935,
        "Ã¡": 4936,
        "ĠSecretary": 4937,
        "Ġgender": 4938,
        "ania": 4939,
        "ĠMedia": 4940,
        "Ġsupply": 4941,
        "ucky": 4942,
        "ĠCollege": 4943,
        "Ġmere": 4944,
        "ĠIN": 4945,
        "Ġdat": 4946,
        "Ġgain": 4947,
        "ĠAN": 4948,
        "ocal": 4949,
        "TC": 4950,
        "ola": 4951,
        "mas": 4952,
        "rig": 4953,
        "makers": 4954,
        "Ġcommission": 4955,
        "Ġremind": 4956,
        "Ġkilling": 4957,
        "hens": 4958,
        "hedul": 4959,
        "Ġwindow": 4960,
        "prof": 4961,
        "Ġbigger": 4962,
        "vis": 4963,
        "Ġaggress": 4964,
        "Ġplanet": 4965,
        "ĠImages": 4966,
        "Ġdefensive": 4967,
        "Ġsides": 4968,
        "ĠAtlant": 4969,
        "Ġstarts": 4970,
        "ĠProt": 4971,
        "Ġhappening": 4972,
        "Ġcircum": 4973,
        "iot": 4974,
        "Ġstruct": 4975,
        "Ġamazing": 4976,
        "Ġfle": 4977,
        "icide": 4978,
        "adium": 4979,
        "ynam": 4980,
        "Ġcrew": 4981,
        "odies": 4982,
        "Ġnone": 4983,
        "Ġbeer": 4984,
        "Ġfamiliar": 4985,
        "Ġscientific": 4986,
        "Ġaward": 4987,
        "gypt": 4988,
        "Ġspect": 4989,
        "Ġplanned": 4990,
        "Ġmental": 4991,
        "Ġspeaking": 4992,
        "When": 4993,
        "upp": 4994,
        "Ġtaxes": 4995,
        "Ġdecide": 4996,
        "Ġfailure": 4997,
        "Ġthanks": 4998,
        "ano": 4999,
        "ĠCamp": 5000,
        "Ġappoint": 5001,
        "lor": 5002,
        "range": 5003,
        "Ġtalks": 5004,
        "amm": 5005,
        "Ġwish": 5006,
        "ĠToronto": 5007,
        "ĠMean": 5008,
        "ĠAmazon": 5009,
        "Ġsudden": 5010,
        "Ġcarried": 5011,
        "ĠBitcoin": 5012,
        "DA": 5013,
        "rees": 5014,
        "idering": 5015,
        "Ġrevolution": 5016,
        "Ġguard": 5017,
        "ĠMars": 5018,
        "imal": 5019,
        "Ġorganizations": 5020,
        "Ġarmy": 5021,
        "ĠMos": 5022,
        "Ġhelping": 5023,
        "uate": 5024,
        "Ġregist": 5025,
        "Ġstandards": 5026,
        "Ġhate": 5027,
        "Ġenvironmental": 5028,
        "Ġmicro": 5029,
        "eless": 5030,
        "agues": 5031,
        "ĠUSA": 5032,
        "uters": 5033,
        "Ġimmigration": 5034,
        "Ġdomestic": 5035,
        "Ġmarkets": 5036,
        "Ġstanding": 5037,
        "Ġsch": 5038,
        "Ġmulti": 5039,
        "46": 5040,
        "ĠBet": 5041,
        "RA": 5042,
        "Ġfiled": 5043,
        "ĠSyrian": 5044,
        "ĠJes": 5045,
        "Ġscript": 5046,
        "ĠPlan": 5047,
        "oston": 5048,
        "Ġvariety": 5049,
        "ias": 5050,
        "aven": 5051,
        "ĠBob": 5052,
        "ĠAri": 5053,
        "aren": 5054,
        "arks": 5055,
        "Ġunion": 5056,
        "cious": 5057,
        "ocol": 5058,
        "Ġpair": 5059,
        "Ġcold": 5060,
        "ĠCentral": 5061,
        "].": 5062,
        "Ġvul": 5063,
        "Ġseconds": 5064,
        "ĠDan": 5065,
        "ĠBefore": 5066,
        "Ġturns": 5067,
        "ĠSocial": 5068,
        "Ġprofessor": 5069,
        "Ġ//": 5070,
        "erous": 5071,
        "ĠOpen": 5072,
        "Ġtack": 5073,
        "gn": 5074,
        "Ġpossibly": 5075,
        "Ġacadem": 5076,
        "Ġtests": 5077,
        "Ġterrit": 5078,
        "awn": 5079,
        "Ġphilos": 5080,
        "Ġvotes": 5081,
        "Ġdegree": 5082,
        "Ġdropped": 5083,
        "fe": 5084,
        "ruit": 5085,
        "Ġhumans": 5086,
        "pm": 5087,
        "HL": 5088,
        "Ġimpossible": 5089,
        "ĠMur": 5090,
        "Ġbalance": 5091,
        "Ġaccounts": 5092,
        "Ġfellow": 5093,
        "aded": 5094,
        "Ġinteract": 5095,
        "Ġreligion": 5096,
        "Ġprinc": 5097,
        "ĠDistrict": 5098,
        "Ġincreasingly": 5099,
        "Ġultimately": 5100,
        "hicles": 5101,
        "ĠService": 5102,
        "ipping": 5103,
        "run": 5104,
        "Ġlived": 5105,
        "Ġoperating": 5106,
        "Ġhonest": 5107,
        "Ġserver": 5108,
        "itect": 5109,
        "Ġworry": 5110,
        "ĠFoundation": 5111,
        "Ġcuts": 5112,
        "icted": 5113,
        "Ġrich": 5114,
        "Ġneighborhood": 5115,
        "Ġlosing": 5116,
        "Ġalternative": 5117,
        "Ġappre": 5118,
        "Re": 5119,
        "iser": 5120,
        "ipment": 5121,
        "Is": 5122,
        "ĠFederal": 5123,
        "ĠEgypt": 5124,
        "Ġhealthy": 5125,
        "Ġagencies": 5126,
        "ĠRE": 5127,
        "Ġque": 5128,
        "illa": 5129,
        "Ġmut": 5130,
        "Ġsounds": 5131,
        "Ġchanging": 5132,
        "Ġunivers": 5133,
        "Ġapply": 5134,
        "Ġdevelopers": 5135,
        "rastructure": 5136,
        "Ġath": 5137,
        "ansion": 5138,
        "ĠFree": 5139,
        "Ġauthority": 5140,
        "Ġdeveloping": 5141,
        "Ġcolle": 5142,
        "och": 5143,
        "ĠSpr": 5144,
        "ĠMiddle": 5145,
        "Ġsea": 5146,
        "ĠSecond": 5147,
        "ĠCarolina": 5148,
        "65": 5149,
        "ĠWhe": 5150,
        "Ġapparently": 5151,
        "Ġabsolutely": 5152,
        "Ġbeautiful": 5153,
        "ĠSing": 5154,
        "No": 5155,
        "ores": 5156,
        "Ġschedul": 5157,
        "Ġbatter": 5158,
        "Ġcloser": 5159,
        "Ġvast": 5160,
        "with": 5161,
        "ashed": 5162,
        "ĠMass": 5163,
        "stein": 5164,
        "Ġcorporate": 5165,
        "Ġpaying": 5166,
        "Ġtwice": 5167,
        "ĠLat": 5168,
        "Ġinnov": 5169,
        "Ġsoldiers": 5170,
        "Ġunits": 5171,
        "Ġimagine": 5172,
        "Ġskin": 5173,
        "apers": 5174,
        "Ġ2004": 5175,
        "Ġflight": 5176,
        "Ġdeploy": 5177,
        "Ġseeking": 5178,
        "Ġpossibility": 5179,
        "ĠMel": 5180,
        "ĠChief": 5181,
        "Ġyards": 5182,
        "Ġwriter": 5183,
        "sen": 5184,
        "!\"": 5185,
        "acks": 5186,
        "Ġexpensive": 5187,
        "Ġadjust": 5188,
        "CH": 5189,
        "roud": 5190,
        "Ġregarding": 5191,
        "----------------": 5192,
        "Ġsitting": 5193,
        "ĠCru": 5194,
        "ĠJournal": 5195,
        "ĠMem": 5196,
        "Ġvision": 5197,
        "Ġexperts": 5198,
        "ĠBoston": 5199,
        "Ġapart": 5200,
        "Ġinternal": 5201,
        "ĠGal": 5202,
        "ĠLee": 5203,
        "ĠThough": 5204,
        "related": 5205,
        "Ġcapacity": 5206,
        "Ġelim": 5207,
        "ĠRub": 5208,
        "Ġcovered": 5209,
        "ologies": 5210,
        "Ġpit": 5211,
        "ĠPower": 5212,
        "ĠSteve": 5213,
        "coh": 5214,
        "Ġvir": 5215,
        "Ġtast": 5216,
        "ĠBook": 5217,
        "ĠFrancisco": 5218,
        "Ġapplications": 5219,
        "ĠVe": 5220,
        "ĠVirginia": 5221,
        "atures": 5222,
        "ĠColor": 5223,
        "Ġelections": 5224,
        "ĠWilliams": 5225,
        "ĠMs": 5226,
        "Ġsolar": 5227,
        "isted": 5228,
        "Ġtrail": 5229,
        "Ġuniversity": 5230,
        "look": 5231,
        "oving": 5232,
        "ION": 5233,
        "IV": 5234,
        "Ġanimal": 5235,
        "pire": 5236,
        "Ġpresented": 5237,
        "idden": 5238,
        "ĠEach": 5239,
        "Ġerror": 5240,
        "Ġresponsibility": 5241,
        "Ġlob": 5242,
        "ĠWatch": 5243,
        "osen": 5244,
        "ĠTop": 5245,
        "Ġunless": 5246,
        "=\"": 5247,
        "Ġarms": 5248,
        "Ġfol": 5249,
        "Americ": 5250,
        "ĠSign": 5251,
        "enced": 5252,
        "Ġsymb": 5253,
        "Ġrid": 5254,
        "Ġfamous": 5255,
        "ĠHist": 5256,
        "Ġpil": 5257,
        "ĠCharl": 5258,
        "Ġflow": 5259,
        "ĠSant": 5260,
        "Ġestimated": 5261,
        "Ġodd": 5262,
        "state": 5263,
        "aine": 5264,
        "ĠOnly": 5265,
        "lets": 5266,
        "Ġguarant": 5267,
        "Ġtight": 5268,
        "Ġsport": 5269,
        "Ġforms": 5270,
        "Ġteen": 5271,
        "ĠConserv": 5272,
        "Ġheat": 5273,
        "Ġinstit": 5274,
        "under": 5275,
        "Ġhyp": 5276,
        "Ġattorney": 5277,
        "ĠRad": 5278,
        "uster": 5279,
        "Ġvehicles": 5280,
        "ĠRo": 5281,
        "ĠParis": 5282,
        "ĠCath": 5283,
        "ĠPhot": 5284,
        "uration": 5285,
        "useum": 5286,
        "hand": 5287,
        "Ġfif": 5288,
        "ENT": 5289,
        "ĠStill": 5290,
        "Ġsurprise": 5291,
        "Ġconsult": 5292,
        "Ġoccurred": 5293,
        "Ġintended": 5294,
        "pret": 5295,
        "oty": 5296,
        "porary": 5297,
        "ortion": 5298,
        "Ġreserv": 5299,
        "eder": 5300,
        "Ġseasons": 5301,
        "IM": 5302,
        "ĠProject": 5303,
        "Ġhelps": 5304,
        "Ġdetermine": 5305,
        "Ġconvention": 5306,
        "ayer": 5307,
        "Ġbroken": 5308,
        "Ġexpert": 5309,
        "Ġrandom": 5310,
        "anche": 5311,
        "rible": 5312,
        "Ġfired": 5313,
        "alls": 5314,
        "()": 5315,
        "ĠSaud": 5316,
        "ĠAv": 5317,
        "Ġstreets": 5318,
        "ĠAustralian": 5319,
        "Ġrapid": 5320,
        "terday": 5321,
        "Ġlocated": 5322,
        "rie": 5323,
        "mail": 5324,
        "Ġton": 5325,
        "ĠRiver": 5326,
        "Ġclim": 5327,
        "Ġstars": 5328,
        "orage": 5329,
        "Ġbringing": 5330,
        "ĠNAS": 5331,
        "31": 5332,
        "Ġnar": 5333,
        "ressive": 5334,
        "ym": 5335,
        "ĠWork": 5336,
        "For": 5337,
        "OW": 5338,
        "Ġera": 5339,
        "cel": 5340,
        "Ġpieces": 5341,
        "Ġconclus": 5342,
        "Ġgovernments": 5343,
        "Ġequipment": 5344,
        "xual": 5345,
        "Ġprove": 5346,
        "Ġpotentially": 5347,
        "ĠAbout": 5348,
        "Ġspecifically": 5349,
        "endment": 5350,
        "ĠShow": 5351,
        "ĠGuard": 5352,
        "Ġboost": 5353,
        "Ġsector": 5354,
        "phas": 5355,
        "person": 5356,
        "Ġprepared": 5357,
        "ss": 5358,
        "ader": 5359,
        "Ġvulner": 5360,
        "Ġruling": 5361,
        "Ġvoted": 5362,
        "Ġbreat": 5363,
        "Ġfaster": 5364,
        "Ġplenty": 5365,
        "IP": 5366,
        "LE": 5367,
        "Ġselling": 5368,
        "Ġstress": 5369,
        "Ġshall": 5370,
        "road": 5371,
        "Ġtroops": 5372,
        "ĠAndrew": 5373,
        "ĠTra": 5374,
        "Ġdram": 5375,
        "ĠSum": 5376,
        "Ġremained": 5377,
        "Ġgar": 5378,
        "Ġheav": 5379,
        "Ġtourn": 5380,
        "Ġrefused": 5381,
        "Ġcouncil": 5382,
        "Ġexpressed": 5383,
        "Ġprosecut": 5384,
        "Ġsecure": 5385,
        "Ġconducted": 5386,
        "Ã¤": 5387,
        "Ġproposal": 5388,
        "Ġinfrastructure": 5389,
        "cean": 5390,
        "ĠNov": 5391,
        "Ġchallenges": 5392,
        "Ġjail": 5393,
        "ĠIsland": 5394,
        "Ġmethods": 5395,
        "Ġoffering": 5396,
        "Ġremove": 5397,
        "Ġoriginally": 5398,
        "ey": 5399,
        "ĠOk": 5400,
        "Ġbaby": 5401,
        "Ġequal": 5402,
        "Ġpointed": 5403,
        "Ġpositions": 5404,
        "Ġdin": 5405,
        "col": 5406,
        "Ð¸": 5407,
        "Ġbroke": 5408,
        "Ġcombat": 5409,
        "Ġfactors": 5410,
        "etic": 5411,
        "Ġclot": 5412,
        "Ġelected": 5413,
        "Ġfinish": 5414,
        "noon": 5415,
        "Ġprime": 5416,
        "Ġ500": 5417,
        "Ġtrig": 5418,
        "Ġshape": 5419,
        "mm": 5420,
        "Ġappearance": 5421,
        "ureau": 5422,
        "ĠWhere": 5423,
        "vey": 5424,
        "ĠHol": 5425,
        "Ġclin": 5426,
        "isher": 5427,
        "ĠMedic": 5428,
        "Ġretail": 5429,
        "Ġcarbon": 5430,
        "rier": 5431,
        "rog": 5432,
        "Ġminimum": 5433,
        "ĠMeanwhile": 5434,
        "ht": 5435,
        ",'": 5436,
        "onom": 5437,
        "ĠForce": 5438,
        "Ġgreatest": 5439,
        "DP": 5440,
        "ĠPac": 5441,
        "Ġvoting": 5442,
        "ĠHuman": 5443,
        "Ġmaster": 5444,
        "64": 5445,
        "Ġsignificantly": 5446,
        "ocking": 5447,
        "eds": 5448,
        "Ġstret": 5449,
        "Ġsigns": 5450,
        "ita": 5451,
        "ĠSpace": 5452,
        "Ġreduced": 5453,
        "olved": 5454,
        "Ġcultural": 5455,
        "ean": 5456,
        "reens": 5457,
        "Ġweren": 5458,
        "lyn": 5459,
        "standing": 5460,
        "Ġweapon": 5461,
        "ĠHaw": 5462,
        "Ġaffected": 5463,
        "Ġinvolve": 5464,
        "Ġcriticism": 5465,
        "ashion": 5466,
        "Ġthank": 5467,
        "pired": 5468,
        "Ġfacing": 5469,
        "lymp": 5470,
        "ĠDaily": 5471,
        "Ġhun": 5472,
        "arp": 5473,
        "ĠJackson": 5474,
        "UT": 5475,
        "Ġbought": 5476,
        "Sh": 5477,
        "ĠMaybe": 5478,
        "ĠTurkey": 5479,
        "Ġdetermined": 5480,
        "Ġremaining": 5481,
        "yr": 5482,
        "ĠSupp": 5483,
        "Ġsupporting": 5484,
        "Ġhandle": 5485,
        "Ġwood": 5486,
        "Ġtele": 5487,
        "Ġindeed": 5488,
        "ĠMa": 5489,
        "Ġregime": 5490,
        "ours": 5491,
        "Ġobviously": 5492,
        "Ġmode": 5493,
        "Ġfilms": 5494,
        "Ġyouth": 5495,
        "Ġpoliticians": 5496,
        "Ġ1990": 5497,
        "Ġchemical": 5498,
        "ini": 5499,
        "TM": 5500,
        "Ġhurt": 5501,
        "Ġpercentage": 5502,
        "Ġcontrast": 5503,
        "Ġpurchase": 5504,
        "Ġthr": 5505,
        "Ġexplos": 5506,
        "Ġrevenue": 5507,
        "ï¿": 5508,
        "asp": 5509,
        "Ġrecorded": 5510,
        "Ġsubs": 5511,
        "Ġargued": 5512,
        "Ġsale": 5513,
        "inating": 5514,
        "ĠDirector": 5515,
        "01": 5516,
        "ĠBBC": 5517,
        "ĠDou": 5518,
        "ighters": 5519,
        "ĠDown": 5520,
        "Ġ195": 5521,
        "war": 5522,
        "IG": 5523,
        "ownt": 5524,
        "Ġgrew": 5525,
        "Ġplus": 5526,
        "ĠRoad": 5527,
        "Ġexcited": 5528,
        "Ġwearing": 5529,
        "essions": 5530,
        "Ġswitch": 5531,
        "Ġherself": 5532,
        "gment": 5533,
        "Ġ=>": 5534,
        "ĠHy": 5535,
        "Ġvisual": 5536,
        "Ġmarg": 5537,
        "Ġbound": 5538,
        "Ġsurprising": 5539,
        "ĠAC": 5540,
        "Ġopportunities": 5541,
        "Ġexperienced": 5542,
        "ĠLook": 5543,
        "Ġexperiment": 5544,
        "Ġdepart": 5545,
        "Ġshift": 5546,
        "Ġglass": 5547,
        "Ġconsidering": 5548,
        "ĠWal": 5549,
        "Ġaccident": 5550,
        "Ġbasically": 5551,
        "Ġidentify": 5552,
        "Ġminute": 5553,
        "top": 5554,
        "Ġtact": 5555,
        "Ġcolumn": 5556,
        "ĠAD": 5557,
        "Ġseat": 5558,
        "ĠOhio": 5559,
        "ruption": 5560,
        "ĠLabour": 5561,
        "ï¿½": 5562,
        "ĠJul": 5563,
        "Ġrent": 5564,
        "Ġspring": 5565,
        "nell": 5566,
        "Ġpackage": 5567,
        "Ġseriously": 5568,
        "Ġdifferences": 5569,
        "Ġlisten": 5570,
        "ĠOlymp": 5571,
        "ĠSqu": 5572,
        "ogue": 5573,
        "Ġleads": 5574,
        "olit": 5575,
        "Ġaid": 5576,
        "ĠOl": 5577,
        "ĠFer": 5578,
        "Ġprospect": 5579,
        "Ġappreci": 5580,
        "Ġpulled": 5581,
        "ĠRod": 5582,
        "Ġbelong": 5583,
        "Ġturning": 5584,
        "Ġdiss": 5585,
        "class": 5586,
        "osite": 5587,
        "Ġafternoon": 5588,
        "95": 5589,
        "Ġpanel": 5590,
        "ĠTechn": 5591,
        "Ġmotiv": 5592,
        "lo": 5593,
        "ller": 5594,
        "Ġproced": 5595,
        "Ġdim": 5596,
        "Ġcopyright": 5597,
        "ĠDevelop": 5598,
        "##": 5599,
        "Ġapps": 5600,
        "Ġconstruct": 5601,
        "Ġcas": 5602,
        "estival": 5603,
        "ÑĤ": 5604,
        "Ġconsumers": 5605,
        "apping": 5606,
        "Ġvideos": 5607,
        "hered": 5608,
        "Ġcompleted": 5609,
        "ĠRon": 5610,
        "Ġaircraft": 5611,
        "Ġpowers": 5612,
        "Ġcombined": 5613,
        "Ġsuppl": 5614,
        "Ġends": 5615,
        "Ġelement": 5616,
        "plom": 5617,
        "cohol": 5618,
        "ĠGen": 5619,
        "Ġagent": 5620,
        "Ġplants": 5621,
        ",[": 5622,
        "oral": 5623,
        "ensions": 5624,
        "anged": 5625,
        "Ġtreated": 5626,
        "ĠLin": 5627,
        "pet": 5628,
        "uts": 5629,
        "Ġevening": 5630,
        "Ġmort": 5631,
        "Ġtun": 5632,
        "Ġconcent": 5633,
        "Tr": 5634,
        "Ġstruggle": 5635,
        "Ġhopes": 5636,
        "Ġast": 5637,
        "ĠWood": 5638,
        "ĠVict": 5639,
        "ĠPenn": 5640,
        "0000": 5641,
        "Ġpages": 5642,
        "Ġsuit": 5643,
        "ĠBus": 5644,
        "Ġid": 5645,
        "ĠSomet": 5646,
        "Ġdismiss": 5647,
        "Ġemergency": 5648,
        "ĠGrand": 5649,
        "Ġpassing": 5650,
        "Ġdiscl": 5651,
        "05": 5652,
        "Ġlots": 5653,
        "Ġburn": 5654,
        "Ġ2003": 5655,
        "Ġdistance": 5656,
        "Ġopposed": 5657,
        "Ġzone": 5658,
        "Ġwidely": 5659,
        "ĠSystem": 5660,
        "ivered": 5661,
        "Ġenemy": 5662,
        "ĠiPh": 5663,
        "oking": 5664,
        "esters": 5665,
        "ĠIts": 5666,
        "Ġsac": 5667,
        "Ġliberal": 5668,
        "Ġtalked": 5669,
        "Ġadvance": 5670,
        "abilities": 5671,
        "ĠScience": 5672,
        "zer": 5673,
        "uous": 5674,
        "ĠWeek": 5675,
        "Ġ36": 5676,
        "life": 5677,
        "aints": 5678,
        "raud": 5679,
        "that": 5680,
        "Ġdefault": 5681,
        "ato": 5682,
        "ucks": 5683,
        "ĠSher": 5684,
        "ĠBest": 5685,
        "ket": 5686,
        "Ġsets": 5687,
        "Ġ\\": 5688,
        "Ġcalcul": 5689,
        "Ġquant": 5690,
        "ributed": 5691,
        "ĠIll": 5692,
        "Ġprivacy": 5693,
        "ĠLife": 5694,
        "Ġcollabor": 5695,
        "aped": 5696,
        "****": 5697,
        "Ġattempts": 5698,
        "Ġcart": 5699,
        "sts": 5700,
        "Ġtrouble": 5701,
        "gent": 5702,
        "ĠAgain": 5703,
        "ĠPR": 5704,
        "Ġproceed": 5705,
        "Ġsad": 5706,
        "Ġreference": 5707,
        "PD": 5708,
        "idel": 5709,
        "rawn": 5710,
        "adow": 5711,
        "mes": 5712,
        "ĠStr": 5713,
        "Ġupgr": 5714,
        "Ġment": 5715,
        "ĠTO": 5716,
        "Ġentertain": 5717,
        "Ġfactor": 5718,
        "Ġtypically": 5719,
        "Ġ2001": 5720,
        "free": 5721,
        "lines": 5722,
        "Ġfrust": 5723,
        "Ġappeal": 5724,
        "Ġsubm": 5725,
        "Ġreporters": 5726,
        "Ġquiet": 5727,
        "ĠDani": 5728,
        "mosp": 5729,
        "ĠKim": 5730,
        "My": 5731,
        "Ġrenew": 5732,
        "ĠRight": 5733,
        "Ġvalid": 5734,
        "Ġoptim": 5735,
        "Ġcoord": 5736,
        "Ġconfidence": 5737,
        "Ġwrites": 5738,
        "Ġgrab": 5739,
        "Ġcaption": 5740,
        "Ġmal": 5741,
        "ĠBraz": 5742,
        "Ġmatters": 5743,
        "Ġdisappoint": 5744,
        "Ġinstitutions": 5745,
        "Ġstorm": 5746,
        "ache": 5747,
        "apter": 5748,
        "ĠCarl": 5749,
        "Ġhol": 5750,
        "Ġcreation": 5751,
        "Ġreaction": 5752,
        "ĠThank": 5753,
        "ĠIre": 5754,
        "razy": 5755,
        "Ġbroadcast": 5756,
        "ĠLong": 5757,
        "ĠCNN": 5758,
        "ĠRev": 5759,
        "urb": 5760,
        "ĠAfghanistan": 5761,
        "Ġstands": 5762,
        "Ġdenied": 5763,
        "ns": 5764,
        "Ġinstruct": 5765,
        "Ġresponded": 5766,
        "Ġcapable": 5767,
        "ĠEr": 5768,
        "respond": 5769,
        "Ġcoast": 5770,
        "Ġapproved": 5771,
        "Ġbodies": 5772,
        "Ġconfident": 5773,
        "mond": 5774,
        "Ġtradition": 5775,
        "Ġmand": 5776,
        "li": 5777,
        "ĠML": 5778,
        "Ġexplo": 5779,
        "Ġweather": 5780,
        "Ġbatt": 5781,
        "oken": 5782,
        "ĠThanks": 5783,
        "ĠSaudi": 5784,
        "ompl": 5785,
        "obe": 5786,
        "Ġtransition": 5787,
        "Ġroute": 5788,
        "Ġsevere": 5789,
        "Ġflag": 5790,
        "hab": 5791,
        "ĠScot": 5792,
        "care": 5793,
        "Ġgra": 5794,
        "Ġcloud": 5795,
        "Ġunable": 5796,
        "Ġloved": 5797,
        "Ġfly": 5798,
        "Ġpitch": 5799,
        "43": 5800,
        "rist": 5801,
        "ĠSeattle": 5802,
        "Ġperspective": 5803,
        "Ġexperiences": 5804,
        "],": 5805,
        "Ġsatisf": 5806,
        "42": 5807,
        "ffee": 5808,
        "Ġpictures": 5809,
        "Ġviolent": 5810,
        "abled": 5811,
        "pass": 5812,
        "Ġnumerous": 5813,
        "Ġtechnical": 5814,
        "host": 5815,
        "Ġforget": 5816,
        "Ġfaces": 5817,
        "ĠGM": 5818,
        "Ġprompt": 5819,
        "abin": 5820,
        "rant": 5821,
        "oves": 5822,
        "Ġreportedly": 5823,
        "ĠMichigan": 5824,
        "ĠStan": 5825,
        "unte": 5826,
        "fere": 5827,
        "elly": 5828,
        "Ġsuffered": 5829,
        "Ġcrimes": 5830,
        "Ġlit": 5831,
        "ĠVol": 5832,
        "Ġexplains": 5833,
        "nergy": 5834,
        "Ġinjured": 5835,
        "isters": 5836,
        "Ġproud": 5837,
        "ĠNote": 5838,
        "ĠBlue": 5839,
        "Ġrot": 5840,
        "Ġexcell": 5841,
        "Ġshouldn": 5842,
        "unction": 5843,
        "ĠFour": 5844,
        "tion": 5845,
        "Ġcann": 5846,
        "Ġprin": 5847,
        "ĠUpd": 5848,
        "ulations": 5849,
        "ĠChristmas": 5850,
        "can": 5851,
        "employ": 5852,
        "Ġmovies": 5853,
        "ilty": 5854,
        "ĠHen": 5855,
        "Ġleaves": 5856,
        "dule": 5857,
        "ishes": 5858,
        "Ġvan": 5859,
        "PR": 5860,
        "Ġadvert": 5861,
        "Ġordered": 5862,
        "Ġapprox": 5863,
        "Ġdeclared": 5864,
        "Ġongoing": 5865,
        "Ġcooper": 5866,
        "Ġcraft": 5867,
        "astern": 5868,
        "Ġcircumst": 5869,
        "Ġgiant": 5870,
        "rid": 5871,
        "Ġsubstant": 5872,
        "ooth": 5873,
        "Ġdelay": 5874,
        "ette": 5875,
        "Ġreporting": 5876,
        "Ġ33": 5877,
        "Ġrail": 5878,
        "Ġfindings": 5879,
        "88": 5880,
        "Ġconnected": 5881,
        "Ġgod": 5882,
        "Ġadvice": 5883,
        "Ġeval": 5884,
        "ĠDev": 5885,
        "Ġgather": 5886,
        "ternal": 5887,
        "Ġthoughts": 5888,
        "Ġdrivers": 5889,
        "Ġdelivered": 5890,
        "Ġstatements": 5891,
        "Ġgraph": 5892,
        "Ġdeclined": 5893,
        "Ġarchitect": 5894,
        "ĠMuslims": 5895,
        "Ġpublicly": 5896,
        "Ġguns": 5897,
        "ĠMount": 5898,
        "ala": 5899,
        "Ġpicked": 5900,
        "Ġemphas": 5901,
        "Ġnewspaper": 5902,
        "Ġupdates": 5903,
        "Ġbrows": 5904,
        "Ġaccompl": 5905,
        "ampion": 5906,
        "Ġdiscrim": 5907,
        "ĠUkraine": 5908,
        "Ġbull": 5909,
        "Ġedge": 5910,
        "Ġmessages": 5911,
        "ĠWalk": 5912,
        "Ġperman": 5913,
        "Ġeditor": 5914,
        "Ġappropriate": 5915,
        "Ġauth": 5916,
        "Ġadmitted": 5917,
        "rum": 5918,
        "ellow": 5919,
        "So": 5920,
        "ĠExp": 5921,
        "Ġec": 5922,
        "Ġmarried": 5923,
        "called": 5924,
        "ĠRomney": 5925,
        "ĠHel": 5926,
        "Ġtransform": 5927,
        "Ġforg": 5928,
        "Ġsession": 5929,
        "Ġrealize": 5930,
        ",âĢĻ": 5931,
        "Ġagents": 5932,
        "Ġobjects": 5933,
        "ionally": 5934,
        "ĠPrem": 5935,
        "ĠElect": 5936,
        "uations": 5937,
        "angers": 5938,
        "mates": 5939,
        "ĠSov": 5940,
        "ĠID": 5941,
        "essor": 5942,
        "Ġdial": 5943,
        "Ġlawyer": 5944,
        "Ġpool": 5945,
        "Ġbuildings": 5946,
        "Ġlegit": 5947,
        "ĠFar": 5948,
        "Ġquarterback": 5949,
        "hew": 5950,
        "ĠIreland": 5951,
        "Ġreaders": 5952,
        "Ġactivists": 5953,
        "Ġarmed": 5954,
        "Ġpatient": 5955,
        "long": 5956,
        "ĠCop": 5957,
        "ĠLib": 5958,
        "uls": 5959,
        "Ġmoral": 5960,
        "Ġ1980": 5961,
        "ĠAnn": 5962,
        "gia": 5963,
        "Ġargue": 5964,
        "Ġourselves": 5965,
        "Ġfilled": 5966,
        "41": 5967,
        "Ġdynam": 5968,
        "Ġemails": 5969,
        "Ġwalking": 5970,
        "cons": 5971,
        "Ġdebut": 5972,
        "Ġtech": 5973,
        "enda": 5974,
        "Ġcauses": 5975,
        "Ġlabel": 5976,
        "ĠHou": 5977,
        "acter": 5978,
        "Ġconfirm": 5979,
        "ĠAut": 5980,
        "Ġshop": 5981,
        "Ġpractices": 5982,
        "TV": 5983,
        "Ġdesire": 5984,
        "resents": 5985,
        "Ġclient": 5986,
        "Ġterrorist": 5987,
        "Ġexercise": 5988,
        "enture": 5989,
        "ansas": 5990,
        "Ġtalent": 5991,
        "inent": 5992,
        "bu": 5993,
        "ĠAff": 5994,
        "amental": 5995,
        "Ġcrack": 5996,
        "Ġallegations": 5997,
        "ĠSwed": 5998,
        "Ġske": 5999,
        "Ġ37": 6000,
        "Ġeffectively": 6001,
        "Ġcontains": 6002,
        "ĠHome": 6003,
        "Ġfish": 6004,
        "Ġsubsequ": 6005,
        "Ġessentially": 6006,
        "Ġsam": 6007,
        "ourney": 6008,
        "Ġbond": 6009,
        "Ġdiplom": 6010,
        "ĠDi": 6011,
        "Ġexpansion": 6012,
        "Ġwear": 6013,
        "agers": 6014,
        "ĠRam": 6015,
        "ĠAuthor": 6016,
        "orry": 6017,
        "Ġgovernor": 6018,
        "Ġinjuries": 6019,
        "ĠBrazil": 6020,
        "Ġflo": 6021,
        "ĠSky": 6022,
        "Ġcentre": 6023,
        "Ġing": 6024,
        "Ġ38": 6025,
        "IR": 6026,
        "ĠAL": 6027,
        "ĠThree": 6028,
        "ERS": 6029,
        "Ġmissed": 6030,
        "Ġartist": 6031,
        "Ġexamples": 6032,
        "Ġthinks": 6033,
        "aza": 6034,
        "ĠPolit": 6035,
        "Ġdatab": 6036,
        "Ġinitially": 6037,
        "Ġhell": 6038,
        "asure": 6039,
        "orders": 6040,
        "Tube": 6041,
        "ĠColumb": 6042,
        "icing": 6043,
        "ÃŃ": 6044,
        "enger": 6045,
        "Ġsecretary": 6046,
        "Ġrain": 6047,
        "Ġmotor": 6048,
        "Ġlinked": 6049,
        "ĠNext": 6050,
        "ĠAriz": 6051,
        "Ġdistribution": 6052,
        "ĠView": 6053,
        "Ġplayoff": 6054,
        "ĠStory": 6055,
        "Ġpure": 6056,
        "Ġeverybody": 6057,
        "arters": 6058,
        "ounded": 6059,
        "Ġfranch": 6060,
        "evin": 6061,
        "illance": 6062,
        "Ġmagazine": 6063,
        "OD": 6064,
        "Ġtree": 6065,
        "Ġmaterials": 6066,
        "Le": 6067,
        "Ġincor": 6068,
        "Ġfacts": 6069,
        "Ġathlet": 6070,
        "ador": 6071,
        "ĠBarack": 6072,
        "ilit": 6073,
        "TA": 6074,
        "Ġradical": 6075,
        "ĠLake": 6076,
        "Ġexplan": 6077,
        "Ġdecre": 6078,
        "Ġadvanced": 6079,
        "ĠSports": 6080,
        "Ġperformed": 6081,
        "Ġspons": 6082,
        "Ġyesterday": 6083,
        "Ġannouncement": 6084,
        "66": 6085,
        "ĠEric": 6086,
        "Ġnations": 6087,
        "Ġfaced": 6088,
        "Ġchart": 6089,
        "orse": 6090,
        "Ġmyster": 6091,
        "Ġscheduled": 6092,
        "ĠiPhone": 6093,
        "Ġinterpret": 6094,
        "rip": 6095,
        "Ġnecessarily": 6096,
        "iat": 6097,
        "water": 6098,
        "Ġabandon": 6099,
        "ĠDiv": 6100,
        "Ġlisted": 6101,
        "II": 6102,
        "ĠISIS": 6103,
        "Ġneither": 6104,
        "TS": 6105,
        "word": 6106,
        "ĠEconom": 6107,
        "Ġflood": 6108,
        "Ġbare": 6109,
        "inals": 6110,
        "Ġincreases": 6111,
        "ĠMot": 6112,
        "Ġaccepted": 6113,
        "Ġjoint": 6114,
        "otic": 6115,
        "Ĥ¬": 6116,
        "ĠColorado": 6117,
        "ĠPerhaps": 6118,
        "esome": 6119,
        "Ġoutput": 6120,
        "ĠEnter": 6121,
        "Ġsuc": 6122,
        "Ġenh": 6123,
        "Ġrepresents": 6124,
        "Ġwarned": 6125,
        "usal": 6126,
        "Ġpra": 6127,
        "Ġapplied": 6128,
        "irty": 6129,
        "Ġmoves": 6130,
        "Ġimproved": 6131,
        "Ġwarm": 6132,
        "Ġfort": 6133,
        "Ġtrib": 6134,
        "Ġride": 6135,
        "ĠMen": 6136,
        "Ġconsequences": 6137,
        "Ġdoctor": 6138,
        "ĠFurther": 6139,
        "burg": 6140,
        "ĠYear": 6141,
        "Ġvari": 6142,
        "Ġdemocracy": 6143,
        "ĠEll": 6144,
        "Ġrow": 6145,
        "ĠTake": 6146,
        "Ġbegins": 6147,
        "Ġremark": 6148,
        "Ġatmosp": 6149,
        "Ġmir": 6150,
        "ĠBoard": 6151,
        "ĠBrook": 6152,
        "Ġalt": 6153,
        "law": 6154,
        "edy": 6155,
        "Ġ2002": 6156,
        "illy": 6157,
        "ideo": 6158,
        "Ġphen": 6159,
        "Ġresolution": 6160,
        "Ġsurprised": 6161,
        "ĠAsia": 6162,
        "ĠKorean": 6163,
        "Ġadds": 6164,
        "Ġoffense": 6165,
        "ĠCard": 6166,
        "Ġconfig": 6167,
        "ĠBoy": 6168,
        "irds": 6169,
        "ĠDC": 6170,
        "MA": 6171,
        "Ġlibrary": 6172,
        "sembly": 6173,
        "ĠJews": 6174,
        "Ġthreats": 6175,
        "ĠGar": 6176,
        "Ġguilty": 6177,
        "Ġnearby": 6178,
        "Ġmanufacture": 6179,
        "Ġstood": 6180,
        "ĠGra": 6181,
        "Ġconsistent": 6182,
        "whel": 6183,
        "Ġshots": 6184,
        "ĠFil": 6185,
        "ĠShare": 6186,
        "ĠYoung": 6187,
        "Ġbrings": 6188,
        "Ġaf": 6189,
        "Ġsongs": 6190,
        "duc": 6191,
        "ĠContin": 6192,
        "itors": 6193,
        "Ġhistorical": 6194,
        "Ġinvestors": 6195,
        "Ġfollows": 6196,
        "level": 6197,
        "ĠGames": 6198,
        "Ġfill": 6199,
        "Ġphilosop": 6200,
        "Ġplane": 6201,
        "Ġrising": 6202,
        "ĠSar": 6203,
        "ĠFam": 6204,
        "ĠClub": 6205,
        "ĠFig": 6206,
        "Ġwithd": 6207,
        "ĠNBA": 6208,
        "ĠCy": 6209,
        "Ġpushed": 6210,
        "ĠCub": 6211,
        "Ġtotally": 6212,
        "Ġbehavi": 6213,
        "Ġsem": 6214,
        "rich": 6215,
        "Ġsought": 6216,
        "alty": 6217,
        "Ġclasses": 6218,
        "Ġnative": 6219,
        "Ġexistence": 6220,
        "Ġentry": 6221,
        "Ġbright": 6222,
        "Ġdiscussed": 6223,
        "Ġrein": 6224,
        "athan": 6225,
        "ĠWik": 6226,
        "greg": 6227,
        "ĠOld": 6228,
        "Ġinput": 6229,
        "acle": 6230,
        "Ġlawsuit": 6231,
        "Ġunlikely": 6232,
        "Ġbutton": 6233,
        "Ġalcohol": 6234,
        "Ġsav": 6235,
        "Ġscr": 6236,
        "Ġnetworks": 6237,
        "stood": 6238,
        "Ġisland": 6239,
        "Ġreceiving": 6240,
        "ĠVan": 6241,
        "Ġwarning": 6242,
        "Ġlie": 6243,
        "Ġ48": 6244,
        "Ġentered": 6245,
        "Ġheads": 6246,
        "Ġ300": 6247,
        "Ġconsumer": 6248,
        "Ġscored": 6249,
        "Ġsymbol": 6250,
        "Ġsplit": 6251,
        "born": 6252,
        "Ġroughly": 6253,
        "Ã¶": 6254,
        "ĠOF": 6255,
        "fortunately": 6256,
        "Ġcombination": 6257,
        "Ġresident": 6258,
        "ician": 6259,
        "Ã³": 6260,
        "ĠHolly": 6261,
        "Ġsym": 6262,
        "Ġstorage": 6263,
        "ĠCharles": 6264,
        "Ġhighlight": 6265,
        "Ġcorrespond": 6266,
        "arden": 6267,
        "Ġstring": 6268,
        "ĠDu": 6269,
        "Ġresc": 6270,
        "nic": 6271,
        "ĠHouston": 6272,
        "LA": 6273,
        "Ġprotests": 6274,
        "Ġfairly": 6275,
        "Ġtow": 6276,
        "Ġhousehold": 6277,
        "Ġfunctions": 6278,
        "Ġsubscrib": 6279,
        "Ġsquare": 6280,
        "Ġboys": 6281,
        "Ġtemperature": 6282,
        "hetic": 6283,
        "pan": 6284,
        "ĠPS": 6285,
        "ĠYouTube": 6286,
        "Ġ49": 6287,
        "Ġdoctors": 6288,
        "ĠRights": 6289,
        "amin": 6290,
        "ĠIns": 6291,
        "Ġcolleagues": 6292,
        "77": 6293,
        "Ġheavily": 6294,
        "Ġanywhere": 6295,
        "Ġcreative": 6296,
        "ĠMax": 6297,
        "Ġcurrency": 6298,
        "Ġlock": 6299,
        "Ġboss": 6300,
        "ican": 6301,
        "Ġrally": 6302,
        "Ġparliament": 6303,
        "Ġclassic": 6304,
        "Ġdeaths": 6305,
        "Ġcontest": 6306,
        "Ġbug": 6307,
        "Ġsucceed": 6308,
        "Ġfavour": 6309,
        "iques": 6310,
        "Ġcere": 6311,
        "ĠWomen": 6312,
        "Ġzero": 6313,
        "SS": 6314,
        "PU": 6315,
        "ĠDie": 6316,
        "Ġmanage": 6317,
        "ĠMic": 6318,
        "Ġprohib": 6319,
        "Ġdefined": 6320,
        "ĠWay": 6321,
        "Ġwaste": 6322,
        "Ġnav": 6323,
        "Ġimportance": 6324,
        "Get": 6325,
        "west": 6326,
        "Ġrestaurant": 6327,
        "ĠStephen": 6328,
        "Ġsnow": 6329,
        "Ġempt": 6330,
        "omin": 6331,
        "%)": 6332,
        "ĠEnergy": 6333,
        "Ġbreaking": 6334,
        "xy": 6335,
        "abb": 6336,
        "Ġschol": 6337,
        "ĠArizona": 6338,
        "Ġyounger": 6339,
        "Ġbag": 6340,
        "ĠIP": 6341,
        "oked": 6342,
        "Ġshif": 6343,
        "ĠPutin": 6344,
        "roit": 6345,
        "Ġillust": 6346,
        "Ġsomewhat": 6347,
        "Ġversions": 6348,
        "Ġreplaced": 6349,
        "power": 6350,
        "Ġopponent": 6351,
        "ĠKevin": 6352,
        "Ġarticles": 6353,
        "def": 6354,
        "Ġopposite": 6355,
        "Ġstores": 6356,
        "Ġtargets": 6357,
        "Ġfraud": 6358,
        "ĠCast": 6359,
        "Ġallegedly": 6360,
        "Ġexpression": 6361,
        "Ġlinks": 6362,
        "Ġplot": 6363,
        "Ġmetal": 6364,
        "Ġpromise": 6365,
        "Ġessential": 6366,
        "Ġflat": 6367,
        "ĠMat": 6368,
        "Ñģ": 6369,
        "ĠArch": 6370,
        "Ġregulations": 6371,
        "ml": 6372,
        "cho": 6373,
        "Ġdownt": 6374,
        "Ġ34": 6375,
        "Ġfacility": 6376,
        "ĠCIA": 6377,
        "ĠChild": 6378,
        "ĠDavis": 6379,
        "comm": 6380,
        "Ġbuying": 6381,
        "ĠTay": 6382,
        "ta": 6383,
        "Ġconfront": 6384,
        "Ġmarketing": 6385,
        "ĠJesus": 6386,
        "âĢ²": 6387,
        "Ġsees": 6388,
        "Ġhardware": 6389,
        "ĠNY": 6390,
        "ĠTit": 6391,
        "dis": 6392,
        "Ġchain": 6393,
        "onna": 6394,
        "ĠWat": 6395,
        "ĠCruz": 6396,
        "IF": 6397,
        "Ġbike": 6398,
        "Ġlaugh": 6399,
        "agan": 6400,
        "Ġvice": 6401,
        "Ġmoments": 6402,
        "ĠWild": 6403,
        "Ġcampus": 6404,
        "ĠPan": 6405,
        "inem": 6406,
        "ĠDefense": 6407,
        "Ġevolution": 6408,
        "ĠBrad": 6409,
        "Ġadults": 6410,
        "ĠRet": 6411,
        "Ġisol": 6412,
        "Ġholds": 6413,
        "Ġblow": 6414,
        "Ġfewer": 6415,
        "Ġtournament": 6416,
        "ensus": 6417,
        "Ġtom": 6418,
        "ena": 6419,
        "Ġrum": 6420,
        "Ġrelevant": 6421,
        "ĠLord": 6422,
        "ĠItal": 6423,
        "ĠAT": 6424,
        "Ġped": 6425,
        "andal": 6426,
        "ĠÎ": 6427,
        "Ġhoping": 6428,
        "Ġharder": 6429,
        "Ġmotion": 6430,
        "ĠSC": 6431,
        "iger": 6432,
        "Ġclosely": 6433,
        "Ġacts": 6434,
        "ĠBat": 6435,
        "Ġreturns": 6436,
        "ĠJava": 6437,
        "Ġindustrial": 6438,
        "ĠPalestinian": 6439,
        "Ġcustomer": 6440,
        "Ġacknowled": 6441,
        "ĠClass": 6442,
        "Ġintention": 6443,
        "ĠSoviet": 6444,
        "game": 6445,
        "olve": 6446,
        "efully": 6447,
        "Ġmechanism": 6448,
        "ulous": 6449,
        "Ġsyn": 6450,
        "Ar": 6451,
        "Ġexcellent": 6452,
        "Ġdivision": 6453,
        "Ġdescribe": 6454,
        "........": 6455,
        "78": 6456,
        "Ġimmediate": 6457,
        "ĠTal": 6458,
        "oma": 6459,
        "Ġvolunte": 6460,
        "ĠValley": 6461,
        "Ġsick": 6462,
        "Ġhat": 6463,
        "Ġgrown": 6464,
        "ĠPy": 6465,
        "Ġcheap": 6466,
        "Ġcycle": 6467,
        "Ġsuffering": 6468,
        "uzz": 6469,
        "Ġtiny": 6470,
        "Bl": 6471,
        "OC": 6472,
        "Ġfashion": 6473,
        "style": 6474,
        "chen": 6475,
        "Ġbon": 6476,
        "ĠNASA": 6477,
        "ads": 6478,
        "Ġflu": 6479,
        "ellect": 6480,
        "Ġparticipants": 6481,
        "Ġdetailed": 6482,
        "Ġpip": 6483,
        "ĠDaniel": 6484,
        "Ġcircumstances": 6485,
        "68": 6486,
        "Ġwins": 6487,
        "ship": 6488,
        "icious": 6489,
        "Ġrelationships": 6490,
        "ĠEnd": 6491,
        "kel": 6492,
        "Ġexperim": 6493,
        "Ġemotional": 6494,
        "ĠJord": 6495,
        "twitter": 6496,
        "Ġefficient": 6497,
        "ĠCatholic": 6498,
        "Ġmine": 6499,
        "awa": 6500,
        "Ġextent": 6501,
        "ocket": 6502,
        "Ġcarrying": 6503,
        "Ġauthors": 6504,
        "Ġembr": 6505,
        "ĠFort": 6506,
        "certain": 6507,
        "Ġimmigrants": 6508,
        "Ġfeatured": 6509,
        "ĠTurn": 6510,
        "ii": 6511,
        "ĠInvest": 6512,
        "Ġcrazy": 6513,
        "erry": 6514,
        "ĠReal": 6515,
        "va": 6516,
        "ĠStand": 6517,
        "ĠCamer": 6518,
        "Ġdecline": 6519,
        "esc": 6520,
        "utch": 6521,
        "ĠMiller": 6522,
        "Ġguide": 6523,
        "Ġtrick": 6524,
        "Ġtermin": 6525,
        "vin": 6526,
        "ologist": 6527,
        "Ġkinds": 6528,
        "Ġfundamental": 6529,
        "ĠSpan": 6530,
        "Ġunus": 6531,
        "Ġwave": 6532,
        "Ð½": 6533,
        "Ġhur": 6534,
        "Ġformed": 6535,
        "gas": 6536,
        "Ġsigning": 6537,
        "Ġearned": 6538,
        "Ġlies": 6539,
        "Ġartists": 6540,
        "Ġcompetitive": 6541,
        "Ġstrange": 6542,
        "rome": 6543,
        "Ġcomfortable": 6544,
        "Ġancient": 6545,
        "Ġregional": 6546,
        "Ġ75": 6547,
        "ĠFinally": 6548,
        "Ġpushing": 6549,
        "atell": 6550,
        "iveness": 6551,
        "Ġacting": 6552,
        "Ġurban": 6553,
        "ĠBas": 6554,
        "Ġrepeatedly": 6555,
        "str": 6556,
        "ocratic": 6557,
        "chers": 6558,
        "friend": 6559,
        "08": 6560,
        "Ġcommitment": 6561,
        "ĠLove": 6562,
        "Ġegg": 6563,
        "otal": 6564,
        "Ġinstru": 6565,
        "Ġupcoming": 6566,
        "Ġmouth": 6567,
        "name": 6568,
        "09": 6569,
        "Ġmanner": 6570,
        "uated": 6571,
        "Ġfrequently": 6572,
        "Ġliqu": 6573,
        "dit": 6574,
        "Ġalongside": 6575,
        "Ġdepth": 6576,
        "ÑĢ": 6577,
        "Ġreferred": 6578,
        "Ġschedule": 6579,
        "Ġrealized": 6580,
        "Ġattempted": 6581,
        "Ġpled": 6582,
        "Ġowned": 6583,
        "Con": 6584,
        "ua": 6585,
        "Ġcert": 6586,
        "',": 6587,
        "Ġcontroversial": 6588,
        "Ġvirtual": 6589,
        "ora": 6590,
        "Ġsentence": 6591,
        "Ġskill": 6592,
        "New": 6593,
        "Ġupdated": 6594,
        "anes": 6595,
        "uable": 6596,
        "bel": 6597,
        "Ġdedicated": 6598,
        "FP": 6599,
        "nam": 6600,
        "ĠWilson": 6601,
        "Ġwire": 6602,
        "umber": 6603,
        "ĠAdam": 6604,
        "Ġsurveillance": 6605,
        "rence": 6606,
        "ĠSk": 6607,
        "ĠDid": 6608,
        "hus": 6609,
        "Ġhotel": 6610,
        "Ġteachers": 6611,
        "bar": 6612,
        "Ġinspired": 6613,
        "Ġobserved": 6614,
        "Ġsharing": 6615,
        "ĠDam": 6616,
        "ockey": 6617,
        "Ġtargeted": 6618,
        "ĠDetroit": 6619,
        "Ġmedic": 6620,
        "aze": 6621,
        "Ġnewslet": 6622,
        "ographic": 6623,
        "Ġwinter": 6624,
        "Ġprotected": 6625,
        "Ġmainstream": 6626,
        "Ġsand": 6627,
        "Ġking": 6628,
        "Ġorders": 6629,
        "rison": 6630,
        "Ġusual": 6631,
        "Ġopponents": 6632,
        "ĠWars": 6633,
        "ĠEp": 6634,
        "Ã¼": 6635,
        "Ġdesk": 6636,
        "ko": 6637,
        "ĠDun": 6638,
        "ĠWin": 6639,
        "ĠBrian": 6640,
        "Ġring": 6641,
        "Ġstruck": 6642,
        "izz": 6643,
        "phy": 6644,
        "Ġassets": 6645,
        "weight": 6646,
        "Ġlatter": 6647,
        "ĠAmong": 6648,
        "Ġsubsid": 6649,
        "Ġintent": 6650,
        "Ġposts": 6651,
        "Ġchairman": 6652,
        "Ġstudio": 6653,
        "Ġdu": 6654,
        "Ġagenda": 6655,
        "Ġwal": 6656,
        "adel": 6657,
        "ĠCheck": 6658,
        "Ġoverwhel": 6659,
        "Ġuniverse": 6660,
        "Ġsurrounding": 6661,
        "Ġchannel": 6662,
        "Ġserving": 6663,
        "Ġsister": 6664,
        "Ġbat": 6665,
        "ĠInf": 6666,
        "All": 6667,
        "Ġkit": 6668,
        "Ġjourney": 6669,
        "Ġmeat": 6670,
        "Ġfolks": 6671,
        "Ġwalked": 6672,
        "sole": 6673,
        "ĠJr": 6674,
        "ĠConf": 6675,
        "Ġprecise": 6676,
        "She": 6677,
        "Ġdiet": 6678,
        "Ġwatched": 6679,
        "ding": 6680,
        "Ġliterally": 6681,
        "foot": 6682,
        "ĠAR": 6683,
        "ceived": 6684,
        "Cl": 6685,
        "Ġcausing": 6686,
        "ati": 6687,
        "Ġfasc": 6688,
        "print": 6689,
        "Ġpassion": 6690,
        "Ġhall": 6691,
        "Ġremote": 6692,
        "azi": 6693,
        "ugh": 6694,
        "iciency": 6695,
        "luding": 6696,
        "gor": 6697,
        "Ġsimpl": 6698,
        "Ġsuicide": 6699,
        "Ġcongress": 6700,
        "Ġrape": 6701,
        "Ġvolume": 6702,
        "Ġdeeply": 6703,
        "Ġfixed": 6704,
        "iami": 6705,
        "ĠRog": 6706,
        "Ġpregn": 6707,
        "Ġreput": 6708,
        "Ġknowing": 6709,
        "ĠLand": 6710,
        "Ġfemin": 6711,
        "Ġstream": 6712,
        "Ġcommunication": 6713,
        "ensity": 6714,
        "Ġsending": 6715,
        "allas": 6716,
        "Ġexciting": 6717,
        "Ġnoticed": 6718,
        "Ġwage": 6719,
        "Ġrisks": 6720,
        "ipl": 6721,
        "Ġ1970": 6722,
        "sex": 6723,
        "Ġaside": 6724,
        "Ġexplore": 6725,
        "ĠGi": 6726,
        "boy": 6727,
        "Ġdealing": 6728,
        "Ġtort": 6729,
        "ĠHollywood": 6730,
        "Ġnarr": 6731,
        "acc": 6732,
        "To": 6733,
        "Ġexhib": 6734,
        "Ġprotesters": 6735,
        "Ġrequirements": 6736,
        "Ġsweet": 6737,
        "Ġforth": 6738,
        "Ġwake": 6739,
        "rive": 6740,
        "ĠVis": 6741,
        "Ġdestroyed": 6742,
        "Ġheight": 6743,
        "59": 6744,
        "ĠFord": 6745,
        "ĠTest": 6746,
        "ĠSpecial": 6747,
        "Ġneut": 6748,
        "Ġcoffee": 6749,
        "ĠSpanish": 6750,
        "Ġunknown": 6751,
        "ĠDig": 6752,
        "edia": 6753,
        "ĠNE": 6754,
        "67": 6755,
        "ĠClick": 6756,
        "gery": 6757,
        "ums": 6758,
        "rors": 6759,
        "Ġsky": 6760,
        "Ġinvolving": 6761,
        "ĠSn": 6762,
        "Ġproperly": 6763,
        "Ġproperties": 6764,
        "Ġpromised": 6765,
        "Ġapproval": 6766,
        "Ġdefeat": 6767,
        "ĠCat": 6768,
        "Ġtested": 6769,
        "Ġalive": 6770,
        "Ġdry": 6771,
        "ĠMS": 6772,
        "ĠOrgan": 6773,
        "ĠAh": 6774,
        "Ġwelcome": 6775,
        "Ġbasket": 6776,
        "Ġsustain": 6777,
        "Ġgap": 6778,
        "lv": 6779,
        "Ġteacher": 6780,
        "Ġreward": 6781,
        "Ġdomin": 6782,
        "ĠCompany": 6783,
        "Ġblame": 6784,
        "ulture": 6785,
        "Ġgang": 6786,
        "Ġphenomen": 6787,
        "Ġunemploy": 6788,
        "po": 6789,
        "apse": 6790,
        "rations": 6791,
        "ĠNight": 6792,
        "ĠItaly": 6793,
        "ĠAdminist": 6794,
        "pool": 6795,
        "Ġcrash": 6796,
        "Ġextended": 6797,
        "ĠCD": 6798,
        "âĢĻ.": 6799,
        "ĠLight": 6800,
        "Ġconver": 6801,
        "Ġdiscover": 6802,
        "Ġapproximately": 6803,
        "ĠNick": 6804,
        "Ġlicense": 6805,
        "ixt": 6806,
        "ĠLew": 6807,
        "Ġanyway": 6808,
        "Ġnorthern": 6809,
        "ao": 6810,
        "Ġtypical": 6811,
        "Ġmoder": 6812,
        "Ġrefugees": 6813,
        "Ġbattery": 6814,
        "ORE": 6815,
        "avor": 6816,
        "Ġputs": 6817,
        "Ġfranchise": 6818,
        "oration": 6819,
        "ĠKn": 6820,
        "ĠHun": 6821,
        "ogan": 6822,
        "Ġsuddenly": 6823,
        "04": 6824,
        "Ġslowly": 6825,
        "Ġterritory": 6826,
        "Ġwest": 6827,
        "Ġmaximum": 6828,
        "Ġdiagn": 6829,
        "onymous": 6830,
        "UR": 6831,
        "ingu": 6832,
        "ĠUnfortunately": 6833,
        "Ġpal": 6834,
        "Ġselection": 6835,
        "Ġrequests": 6836,
        "woman": 6837,
        "ĠWater": 6838,
        "Ġlocations": 6839,
        "abis": 6840,
        "Ġmistake": 6841,
        "Ġpromote": 6842,
        "ĠGall": 6843,
        "Ġprote": 6844,
        "Ġsample": 6845,
        "ĠJordan": 6846,
        "Ġimpressive": 6847,
        "ĠCam": 6848,
        "ĠTurk": 6849,
        "ĠGeorgia": 6850,
        "07": 6851,
        "Ġproof": 6852,
        "Ġnarrow": 6853,
        "American": 6854,
        "Ġattacked": 6855,
        "Ġchose": 6856,
        "Ġwid": 6857,
        "ilding": 6858,
        "ĠSociety": 6859,
        "Ġoblig": 6860,
        "ĠLabor": 6861,
        "stone": 6862,
        "Ġterrorism": 6863,
        "aser": 6864,
        "Ġcontrolled": 6865,
        "Al": 6866,
        "obile": 6867,
        "Ġshel": 6868,
        "alle": 6869,
        "Ġmerely": 6870,
        "ĠNetwork": 6871,
        "ĠDark": 6872,
        "ether": 6873,
        "Ġsho": 6874,
        "Ġmatches": 6875,
        "owered": 6876,
        "ĠCall": 6877,
        "ĠSteven": 6878,
        "Ġdisag": 6879,
        "ĠMiami": 6880,
        "ĠSea": 6881,
        "ĠKey": 6882,
        "onic": 6883,
        "Ġlikes": 6884,
        "Ġeating": 6885,
        "ĠSenator": 6886,
        "Ġretire": 6887,
        "Ġeast": 6888,
        "How": 6889,
        "osis": 6890,
        "ĠIrish": 6891,
        "dro": 6892,
        "Ġarguments": 6893,
        "ĠVictor": 6894,
        "Ġ39": 6895,
        "Ġworried": 6896,
        "Ġdeals": 6897,
        "ĠAttorney": 6898,
        "sters": 6899,
        "axy": 6900,
        "ĠUt": 6901,
        "Ġregions": 6902,
        "Ġcommunications": 6903,
        "acking": 6904,
        "anges": 6905,
        "Ġlimits": 6906,
        "Ġselected": 6907,
        "Ġsupports": 6908,
        "Ġthread": 6909,
        "ocation": 6910,
        "ĠAgency": 6911,
        "Ġallies": 6912,
        "Ġrub": 6913,
        "pes": 6914,
        "inson": 6915,
        "ĠThus": 6916,
        "intend": 6917,
        "Ġfacilities": 6918,
        "Ġobtained": 6919,
        "Ġassume": 6920,
        "Ġrecognize": 6921,
        "ĠFre": 6922,
        "ĠJersey": 6923,
        "Ġtheme": 6924,
        "Ġpunish": 6925,
        "Ġfees": 6926,
        "Ġformat": 6927,
        "ĠWhich": 6928,
        "Ġvillage": 6929,
        "Ġtransp": 6930,
        "ĠBru": 6931,
        "Ġtopic": 6932,
        "tle": 6933,
        "ĠDar": 6934,
        "ĠBell": 6935,
        "Ġsole": 6936,
        "Ġunderstood": 6937,
        "Ġbunch": 6938,
        "celer": 6939,
        "Ġphase": 6940,
        "asks": 6941,
        "Ġjournalists": 6942,
        "ayers": 6943,
        "verty": 6944,
        "Ġresistance": 6945,
        "gender": 6946,
        "Ġsomehow": 6947,
        "ĠJoseph": 6948,
        "Ġfuck": 6949,
        "oster": 6950,
        "ura": 6951,
        "http": 6952,
        "ĠMinnes": 6953,
        "oric": 6954,
        "ĠJosh": 6955,
        "58": 6956,
        "VER": 6957,
        "oming": 6958,
        "cers": 6959,
        "raid": 6960,
        "Pro": 6961,
        "Ġsomewhere": 6962,
        "DS": 6963,
        "Ġpersonally": 6964,
        "Ġabortion": 6965,
        "Ġadapt": 6966,
        "list": 6967,
        "ĠSource": 6968,
        "Ġconstant": 6969,
        "Ð¾Ð": 6970,
        "Ġdress": 6971,
        "Ġpolls": 6972,
        "02": 6973,
        "Ġdeck": 6974,
        "GBT": 6975,
        "Ġstrongly": 6976,
        "ĠAsian": 6977,
        "itarian": 6978,
        "fire": 6979,
        "Ġpoverty": 6980,
        "Ġstim": 6981,
        "you": 6982,
        "Ġemissions": 6983,
        "ĠSuch": 6984,
        "Ġdatabase": 6985,
        "Ġsquad": 6986,
        "ĠMoore": 6987,
        "cow": 6988,
        "ĠOS": 6989,
        "Ġnomine": 6990,
        "ĠDisney": 6991,
        "Ġwinner": 6992,
        "Ġexposed": 6993,
        "ĠEduc": 6994,
        "Ġsouthern": 6995,
        "ĠCivil": 6996,
        "Ġequival": 6997,
        "Ġcritics": 6998,
        "69": 6999,
        "ĠBusiness": 7000,
        "ĠNever": 7001,
        "Ġhits": 7002,
        "Ġbid": 7003,
        "Ġpic": 7004,
        "Ġempty": 7005,
        "Ġfalling": 7006,
        "Ġflex": 7007,
        "ĠReview": 7008,
        "Ġpurposes": 7009,
        "redit": 7010,
        "Ġchampion": 7011,
        "ĠAnth": 7012,
        "Ġvacc": 7013,
        "Ġevil": 7014,
        "asts": 7015,
        "ĠNHL": 7016,
        "Ġcondem": 7017,
        "ĠScotland": 7018,
        "ĠNations": 7019,
        "Ġbench": 7020,
        "Ġhonor": 7021,
        "ĠIndeed": 7022,
        "ĠCare": 7023,
        "Ġdecent": 7024,
        "Ġanx": 7025,
        "ĠOper": 7026,
        "Ġbear": 7027,
        "Ġelectricity": 7028,
        "Ġtruck": 7029,
        "Ġscheme": 7030,
        "Ġicon": 7031,
        "pected": 7032,
        "ems": 7033,
        "Ġencourage": 7034,
        "Ġcutting": 7035,
        "ĠOs": 7036,
        "Ġdefinition": 7037,
        "Ġharass": 7038,
        "Ġescape": 7039,
        "ĠAcadem": 7040,
        "Ġgoods": 7041,
        "ciples": 7042,
        "Ġdrag": 7043,
        "aug": 7044,
        "orted": 7045,
        "Ġcomprom": 7046,
        "Ġcomparison": 7047,
        "enders": 7048,
        "igation": 7049,
        "alo": 7050,
        "Ġfinds": 7051,
        "ĠDNA": 7052,
        "Ġmeetings": 7053,
        "Ġprofit": 7054,
        "ĠColl": 7055,
        "ĠHot": 7056,
        "Ġdesper": 7057,
        "rary": 7058,
        "ras": 7059,
        "Ġgotten": 7060,
        "ĠMinnesota": 7061,
        "Ġofficially": 7062,
        "Ġ42": 7063,
        "owa": 7064,
        "Ġtrees": 7065,
        "Ġideal": 7066,
        "ĠCH": 7067,
        "zens": 7068,
        "ĠSpain": 7069,
        "Ġemployee": 7070,
        "Ġdriven": 7071,
        "ĠDallas": 7072,
        "Ġdirected": 7073,
        "ĠMarc": 7074,
        "iform": 7075,
        "Ġintellect": 7076,
        "ivery": 7077,
        "sea": 7078,
        "Ġstronger": 7079,
        "Ġclaiming": 7080,
        "Ġreveal": 7081,
        "Ġpod": 7082,
        "arity": 7083,
        "Ġfifth": 7084,
        "Ġmayor": 7085,
        "Ġruled": 7086,
        "Ġextensive": 7087,
        "ĠRun": 7088,
        "Ġstretch": 7089,
        "Ġperfectly": 7090,
        "ĠTem": 7091,
        "Ġpayments": 7092,
        "ĠHas": 7093,
        "lls": 7094,
        "Ġinqu": 7095,
        "Ġspin": 7096,
        "Ġchosen": 7097,
        "Ġthreatened": 7098,
        "NC": 7099,
        "Ġsight": 7100,
        "ĠTaylor": 7101,
        "han": 7102,
        "ĠOrig": 7103,
        "Ġending": 7104,
        "ĠConstitution": 7105,
        "iner": 7106,
        "Ġupper": 7107,
        "Ġreasonable": 7108,
        "Ġunw": 7109,
        "Ġretain": 7110,
        "Ġrejected": 7111,
        "post": 7112,
        "57": 7113,
        "Ġdistinct": 7114,
        "Ġdrawn": 7115,
        "Ġamounts": 7116,
        "Ġties": 7117,
        "otes": 7118,
        "ĠTony": 7119,
        "Ġaspects": 7120,
        "Ġseats": 7121,
        "ĠId": 7122,
        "Ġtrading": 7123,
        "Ġprimarily": 7124,
        "Ġbrew": 7125,
        "Ġestimates": 7126,
        "ĠStart": 7127,
        "ĠSouthern": 7128,
        "ĠDead": 7129,
        "eping": 7130,
        "asters": 7131,
        "ĠForeign": 7132,
        "Ġdeveloper": 7133,
        "Ġconstit": 7134,
        "Ġrival": 7135,
        "Ġanswers": 7136,
        "Ġdogs": 7137,
        "Ġcolon": 7138,
        "Ġhouses": 7139,
        "ĠCross": 7140,
        "Ġdeleg": 7141,
        "inations": 7142,
        "Ġincl": 7143,
        "ĠChampionship": 7144,
        "ĠRay": 7145,
        "ĠâĪ": 7146,
        "tes": 7147,
        "essed": 7148,
        "Ġfields": 7149,
        "era": 7150,
        "Ġcourts": 7151,
        "owed": 7152,
        "Ġelsewhere": 7153,
        "fast": 7154,
        "Ġsolutions": 7155,
        "Ġfold": 7156,
        "Ġfighters": 7157,
        "Ġboot": 7158,
        "Ġsomebody": 7159,
        "Ġengage": 7160,
        "ĠItalian": 7161,
        "ĠCome": 7162,
        "Ġbaseball": 7163,
        "Ġnobody": 7164,
        "Ġexists": 7165,
        "Ġflying": 7166,
        "Ġemployment": 7167,
        "ĠServices": 7168,
        "Ġresulting": 7169,
        "Ġchoices": 7170,
        "mo": 7171,
        "Ġmixed": 7172,
        "Ġtank": 7173,
        "Ġrig": 7174,
        "Ġconstantly": 7175,
        "Ġanymore": 7176,
        "ĠSP": 7177,
        "Ġpayment": 7178,
        "ĠData": 7179,
        "wan": 7180,
        "Ġtechnologies": 7181,
        "Ġble": 7182,
        "Ġkeeps": 7183,
        "icken": 7184,
        "Ġcontem": 7185,
        "ĠUlt": 7186,
        "ĠProgram": 7187,
        "Ġsoul": 7188,
        "ĠPay": 7189,
        "Ġletters": 7190,
        "Ġparking": 7191,
        "Ġcaptured": 7192,
        "agram": 7193,
        "zy": 7194,
        "ĠKelly": 7195,
        "Ġoutcome": 7196,
        "Ġnarrative": 7197,
        "ĠNBC": 7198,
        "Ġcontrols": 7199,
        "ĠHave": 7200,
        "Ġencoun": 7201,
        "ba": 7202,
        "Ġcontributed": 7203,
        "Ġfounder": 7204,
        "ĠFollowing": 7205,
        "mod": 7206,
        "Ġconscious": 7207,
        "Ġmachines": 7208,
        "ĠLinux": 7209,
        "ĠHistory": 7210,
        "Ġawesome": 7211,
        "Ġcoalition": 7212,
        "regon": 7213,
        "Ġincredible": 7214,
        "Ġparam": 7215,
        "earing": 7216,
        "Ġprofile": 7217,
        "isan": 7218,
        "Ġbills": 7219,
        "ĠMajor": 7220,
        "Ġroot": 7221,
        "rehens": 7222,
        "lock": 7223,
        "Ġfeedback": 7224,
        "rett": 7225,
        "Ġweird": 7226,
        "vy": 7227,
        "Ġregularly": 7228,
        "CE": 7229,
        "Ġworldwide": 7230,
        "ĠBowl": 7231,
        "irms": 7232,
        "lder": 7233,
        "Ġconcluded": 7234,
        "ĠMake": 7235,
        "Ġregistered": 7236,
        "onsin": 7237,
        "ĠIT": 7238,
        "ĠGreg": 7239,
        "ĠSaf": 7240,
        "ĠGlobal": 7241,
        "Ġsituations": 7242,
        "Ġmurd": 7243,
        "Ġaccurate": 7244,
        "Ġroutine": 7245,
        "Ġprovince": 7246,
        "apes": 7247,
        "Ġpaint": 7248,
        "Ġ55": 7249,
        "Ġcomponents": 7250,
        "isconsin": 7251,
        "03": 7252,
        "Ġunp": 7253,
        "Ġactor": 7254,
        "ĠLo": 7255,
        "otten": 7256,
        "Ġincredibly": 7257,
        "Ġsignal": 7258,
        "ĠFood": 7259,
        ".\"[": 7260,
        "Ġrecovery": 7261,
        "Ġdemands": 7262,
        "Ġapartment": 7263,
        "Ġstead": 7264,
        "emen": 7265,
        "Ġ($": 7266,
        "inding": 7267,
        "ali": 7268,
        "Ġpenalty": 7269,
        "ĠBalt": 7270,
        "ĠSever": 7271,
        "Ġraising": 7272,
        "Our": 7273,
        "Ġcontinuing": 7274,
        "Ġcrucial": 7275,
        "Ġproved": 7276,
        "On": 7277,
        "ĠMcG": 7278,
        "car": 7279,
        "Ġatmosphere": 7280,
        "lights": 7281,
        "Ġreturning": 7282,
        "Ġclients": 7283,
        "Ġroster": 7284,
        "ĠParliament": 7285,
        "ilarly": 7286,
        "Ġinfect": 7287,
        "Ġdozen": 7288,
        "ĠFoot": 7289,
        "inity": 7290,
        "sell": 7291,
        "lers": 7292,
        "Ġenthus": 7293,
        "Ġkil": 7294,
        "mont": 7295,
        "300": 7296,
        "An": 7297,
        "Ġloan": 7298,
        "Ġgenerate": 7299,
        "Ġangry": 7300,
        "ĠFull": 7301,
        "ĠRick": 7302,
        "Ġexcess": 7303,
        "ser": 7304,
        "Ġ64": 7305,
        "Ġenemies": 7306,
        "Ġtied": 7307,
        "iscal": 7308,
        "98": 7309,
        "Ġassistant": 7310,
        "ĠRoman": 7311,
        "Ġstuck": 7312,
        "acked": 7313,
        "Ġrepresented": 7314,
        "ĠLive": 7315,
        "Ġnewly": 7316,
        "Ġexplanation": 7317,
        "rates": 7318,
        "adelph": 7319,
        "Ġcategory": 7320,
        "Ġinformed": 7321,
        "rage": 7322,
        "Ġconsumption": 7323,
        "ĠMid": 7324,
        "Ġtall": 7325,
        "Ġaggressive": 7326,
        "ĠMoscow": 7327,
        "Ġmyth": 7328,
        "Ġinnoc": 7329,
        "Ġ65": 7330,
        "ĠESP": 7331,
        "Ġmanip": 7332,
        "Ġconclusion": 7333,
        "Ġreporter": 7334,
        "Ġterrible": 7335,
        "Ġhabit": 7336,
        "Ġdollar": 7337,
        "Ġestate": 7338,
        "Ġru": 7339,
        "Ġrus": 7340,
        "Ġdrinking": 7341,
        "Ġwriters": 7342,
        "Ġsympt": 7343,
        "Ġplastic": 7344,
        "Ġgranted": 7345,
        "Ġcomplicated": 7346,
        "Ġcompens": 7347,
        "Ġconven": 7348,
        "Ġmagic": 7349,
        "Ġveteran": 7350,
        "========": 7351,
        "sm": 7352,
        "icer": 7353,
        "ĠBull": 7354,
        "ĠPacific": 7355,
        "da": 7356,
        "Ġ1999": 7357,
        "ĠKurd": 7358,
        "Ġgro": 7359,
        "ĠHom": 7360,
        "ĠSeries": 7361,
        "Ġcapture": 7362,
        "Ġcomplaint": 7363,
        "ĠReport": 7364,
        "anchester": 7365,
        "MP": 7366,
        "ifications": 7367,
        "Ġcounty": 7368,
        "ĠJason": 7369,
        "Ġchances": 7370,
        "Ġtitles": 7371,
        "bal": 7372,
        "elect": 7373,
        "Ġorganized": 7374,
        "adelphia": 7375,
        "âĢĺ": 7376,
        "iana": 7377,
        "Ġok": 7378,
        "LC": 7379,
        "Ġiron": 7380,
        "Ġaudio": 7381,
        "Ġassistance": 7382,
        "Ġblocks": 7383,
        "imp": 7384,
        "ĠWisconsin": 7385,
        "Ġtechniques": 7386,
        "Ġticket": 7387,
        "actions": 7388,
        "ĠHard": 7389,
        "ez": 7390,
        "ĠMu": 7391,
        "ĠNorthern": 7392,
        "Ġautomatically": 7393,
        "Ġbitcoin": 7394,
        "ĠNob": 7395,
        "Ġconspir": 7396,
        "itar": 7397,
        "ĠJudge": 7398,
        "ĠOregon": 7399,
        "Ġimper": 7400,
        "ĠGer": 7401,
        "Ġextract": 7402,
        "ĠFred": 7403,
        "Ġdegrees": 7404,
        "Ġprogramming": 7405,
        "Ġscenes": 7406,
        "Ġshares": 7407,
        "Ġ%": 7408,
        "rating": 7409,
        "Ġgaming": 7410,
        "chain": 7411,
        "ker": 7412,
        "06": 7413,
        "Ġanticip": 7414,
        "Ġsurvive": 7415,
        "Ġpermanent": 7416,
        "Ġteaching": 7417,
        "ĠLGBT": 7418,
        "</": 7419,
        "Ġsuccessfully": 7420,
        "Ġsolve": 7421,
        "Ġinstalled": 7422,
        "ĠKent": 7423,
        "Ġwarming": 7424,
        "aron": 7425,
        "ĠZeal": 7426,
        "Ġindex": 7427,
        "))": 7428,
        "Ġnut": 7429,
        "Ġoperate": 7430,
        "Ġmonit": 7431,
        "ĠHor": 7432,
        "aed": 7433,
        "Ġaimed": 7434,
        "rete": 7435,
        "Ġpilot": 7436,
        "ĠAlab": 7437,
        "gorith": 7438,
        "ifer": 7439,
        "Ġphr": 7440,
        "Ġvulnerable": 7441,
        "Ġsatell": 7442,
        "ibilities": 7443,
        "Ġengaged": 7444,
        "Ġpin": 7445,
        "Ġlawmakers": 7446,
        "ĠHenry": 7447,
        "uan": 7448,
        "ĠDoes": 7449,
        "ĠCoast": 7450,
        "Ġacademic": 7451,
        "ĠGreek": 7452,
        "ules": 7453,
        "there": 7454,
        "ĠUse": 7455,
        "ĠSnow": 7456,
        "Ġdowntown": 7457,
        "Photo": 7458,
        "ĠMir": 7459,
        "xx": 7460,
        "Ġads": 7461,
        "Ġhidden": 7462,
        "Ġcollected": 7463,
        "ĠUsing": 7464,
        "Ġmarked": 7465,
        "Ġchampionship": 7466,
        "ima": 7467,
        "ĠâĢĻ": 7468,
        "ĠVideo": 7469,
        "lan": 7470,
        "At": 7471,
        "iy": 7472,
        "ĠThrough": 7473,
        "anny": 7474,
        "ĠAS": 7475,
        "Ġtaught": 7476,
        "hent": 7477,
        "etary": 7478,
        "HS": 7479,
        "Ġvaluable": 7480,
        "Ġuncertain": 7481,
        "Ġtracks": 7482,
        "idency": 7483,
        "Un": 7484,
        "ĠAsh": 7485,
        "ĠNation": 7486,
        "Ġoverse": 7487,
        "ĠJac": 7488,
        "Ġattended": 7489,
        "Ġdisaster": 7490,
        "Ġrating": 7491,
        "ĠKir": 7492,
        "Ġtaste": 7493,
        "ĠEastern": 7494,
        "Ġdepending": 7495,
        "ĠIowa": 7496,
        "ĠPolicy": 7497,
        "Ġaccomp": 7498,
        "rific": 7499,
        "Ġthin": 7500,
        "hips": 7501,
        "Ġworker": 7502,
        "ĠFC": 7503,
        "Ġapolog": 7504,
        "Ġrecording": 7505,
        "Ġracial": 7506,
        "itals": 7507,
        "star": 7508,
        "Ġenable": 7509,
        "Ġ47": 7510,
        "ĠPhiladelphia": 7511,
        "ĠRand": 7512,
        "Ġextrem": 7513,
        "Ġsurgery": 7514,
        "Ġ44": 7515,
        "Ġregardless": 7516,
        "Donald": 7517,
        "Ġprivile": 7518,
        "ĠList": 7519,
        "ĠDevelopment": 7520,
        "Ġinspir": 7521,
        "bro": 7522,
        "Ġwestern": 7523,
        "Ġgrant": 7524,
        "ĠManchester": 7525,
        "Ġbusy": 7526,
        "Ġsufficient": 7527,
        "ĠAvenue": 7528,
        "Ġvisited": 7529,
        "ĠArm": 7530,
        "mann": 7531,
        "Ġprinciples": 7532,
        "Ġcup": 7533,
        "Ġengineering": 7534,
        "ĠViet": 7535,
        "Ġnegotiations": 7536,
        "Ġpace": 7537,
        "Ġenjoyed": 7538,
        "%.": 7539,
        "text": 7540,
        "dy": 7541,
        "Ġbes": 7542,
        "Ġprominent": 7543,
        "Ġmedium": 7544,
        "Ġafraid": 7545,
        "Ġ400": 7546,
        "ilton": 7547,
        "Ġspr": 7548,
        "iro": 7549,
        "Ġexposure": 7550,
        "Ġintense": 7551,
        "ĠRos": 7552,
        "ĠMoh": 7553,
        "prise": 7554,
        "ashes": 7555,
        "Ġgenerated": 7556,
        "Ġpasses": 7557,
        "Ġstations": 7558,
        "Ġreputation": 7559,
        "Ġfake": 7560,
        "Ġcomic": 7561,
        "Ġelite": 7562,
        "Ġtroub": 7563,
        "Ġeverywhere": 7564,
        "ĠHarry": 7565,
        "Ġdict": 7566,
        "Ġcrypt": 7567,
        "uine": 7568,
        "Ġequivalent": 7569,
        "aturally": 7570,
        "ĠFund": 7571,
        "Ġtherap": 7572,
        "ĠAlabama": 7573,
        "Ġbom": 7574,
        "ĠWithout": 7575,
        "Ġdefence": 7576,
        "Ġlawyers": 7577,
        "fall": 7578,
        "ded": 7579,
        "Ġcable": 7580,
        "Ġmail": 7581,
        "front": 7582,
        "Ġentit": 7583,
        "ĠMusic": 7584,
        "Ġphones": 7585,
        "Ġblind": 7586,
        "ĠProfessor": 7587,
        "rypt": 7588,
        "Ġelev": 7589,
        "Ġadvis": 7590,
        "Ġpersonnel": 7591,
        "Ġadopted": 7592,
        "Ġemerged": 7593,
        "quarters": 7594,
        "Ġplug": 7595,
        "Ġportion": 7596,
        "ĠMayor": 7597,
        "athy": 7598,
        "Ġextension": 7599,
        "ĠHit": 7600,
        "Ġpatterns": 7601,
        "Ġunusual": 7602,
        "âĢĻ,": 7603,
        "Ġcontracts": 7604,
        "Ġresulted": 7605,
        "Ġmainly": 7606,
        "ĠRoyal": 7607,
        "Ġprocesses": 7608,
        "ĠOak": 7609,
        "ĠNavy": 7610,
        "Ġtaxp": 7611,
        "aire": 7612,
        "Ġ41": 7613,
        "Ġfunny": 7614,
        "Ġfought": 7615,
        "Ġgall": 7616,
        "56": 7617,
        "ĠFair": 7618,
        "Ġdiscipl": 7619,
        "active": 7620,
        "istent": 7621,
        "Ġcompete": 7622,
        "idelines": 7623,
        "orough": 7624,
        "Ġexpectations": 7625,
        "gun": 7626,
        "iler": 7627,
        "Ġho": 7628,
        "Ġbrowser": 7629,
        "ĠNC": 7630,
        "Ġfinance": 7631,
        "Ġbrut": 7632,
        "month": 7633,
        "antic": 7634,
        "Ġenorm": 7635,
        "Ġcameras": 7636,
        "ATE": 7637,
        "Ġhadn": 7638,
        "Ġexplicit": 7639,
        "Ġcited": 7640,
        "world": 7641,
        "inder": 7642,
        "Ġvisible": 7643,
        "Ġ?": 7644,
        "Ġstrict": 7645,
        "Ġcorruption": 7646,
        "ĠZealand": 7647,
        "Ġpounds": 7648,
        "Ġdescribes": 7649,
        "ĠSir": 7650,
        "ĠAmendment": 7651,
        "Ġduty": 7652,
        "upid": 7653,
        "Ġinev": 7654,
        "ĠSH": 7655,
        "Ġfeelings": 7656,
        "Ġthick": 7657,
        "icate": 7658,
        "scape": 7659,
        "Ġminority": 7660,
        "ĠEducation": 7661,
        "ria": 7662,
        "TH": 7663,
        "Ġrarely": 7664,
        "Ġsup": 7665,
        "herent": 7666,
        "Ġimplementation": 7667,
        "viously": 7668,
        "rell": 7669,
        "ĠPremier": 7670,
        "ĠReuters": 7671,
        "Ġpossession": 7672,
        "ĠHay": 7673,
        "Ġju": 7674,
        "ĠSometimes": 7675,
        "Ġtur": 7676,
        "Ġsanctions": 7677,
        "ĠOK": 7678,
        "ĠAtlanta": 7679,
        "ĠSeveral": 7680,
        "Ġshortly": 7681,
        "cles": 7682,
        "Ġpermission": 7683,
        "core": 7684,
        "Ġshock": 7685,
        "Ġscenario": 7686,
        "ĠRa": 7687,
        "Ġlights": 7688,
        "Ġtor": 7689,
        "Ġsharp": 7690,
        "ĠBry": 7691,
        "Ġpriority": 7692,
        "86": 7693,
        "rep": 7694,
        "Ġparticipate": 7695,
        "MS": 7696,
        "Ġmel": 7697,
        "ĠIndepend": 7698,
        "ifies": 7699,
        "ĠTurkish": 7700,
        "Ġrecru": 7701,
        "Ġrecip": 7702,
        "Ġacceler": 7703,
        "ĠExt": 7704,
        "Ġloud": 7705,
        "writ": 7706,
        "ĠPoint": 7707,
        "ĠSS": 7708,
        "ĠGiven": 7709,
        "Ex": 7710,
        "ogen": 7711,
        "ĠCre": 7712,
        "eland": 7713,
        "making": 7714,
        "54": 7715,
        "Ġ150": 7716,
        "orne": 7717,
        "Ġfee": 7718,
        "ĠPack": 7719,
        "Ġveget": 7720,
        "Ġhistoric": 7721,
        "Ġinterface": 7722,
        "abs": 7723,
        "Ġstrikes": 7724,
        "EA": 7725,
        "Ġfounded": 7726,
        "Ġcreates": 7727,
        "ĠRose": 7728,
        "ĠScient": 7729,
        "ĠKingdom": 7730,
        "Ġmanufacturing": 7731,
        "olt": 7732,
        "Ġfirms": 7733,
        "Ġphotograph": 7734,
        "Ġcomputers": 7735,
        "ĠInformation": 7736,
        "igg": 7737,
        "Ġthousand": 7738,
        "Ġwing": 7739,
        "inking": 7740,
        "xic": 7741,
        "Ġlaid": 7742,
        "Ġwww": 7743,
        "ĠNic": 7744,
        "Oh": 7745,
        "Ġadvertising": 7746,
        "Ġwonderful": 7747,
        "Ġyield": 7748,
        "Ġven": 7749,
        "ĠCO": 7750,
        "Ġ43": 7751,
        "azz": 7752,
        "ĠRadio": 7753,
        "ĠEs": 7754,
        "obs": 7755,
        "ĠMcCain": 7756,
        "Ġbehalf": 7757,
        "cr": 7758,
        "Ġdrawing": 7759,
        "found": 7760,
        "ĠRus": 7761,
        "ĠHa": 7762,
        "Ġfault": 7763,
        "athered": 7764,
        "ĠESPN": 7765,
        "Ġpropag": 7766,
        "%,": 7767,
        "Ġaffili": 7768,
        "ogether": 7769,
        "izon": 7770,
        "olis": 7771,
        "log": 7772,
        "ĠSeason": 7773,
        "Ġdozens": 7774,
        "ye": 7775,
        "Ġobst": 7776,
        "Ġridic": 7777,
        "cling": 7778,
        "ĠPen": 7779,
        "pread": 7780,
        "wr": 7781,
        "ĠFed": 7782,
        "ĠField": 7783,
        "Ġstable": 7784,
        "ilipp": 7785,
        "ja": 7786,
        "Ġcyber": 7787,
        "Ġpump": 7788,
        "ĠLuc": 7789,
        "ikes": 7790,
        "::": 7791,
        "ĠLind": 7792,
        "Ġscoring": 7793,
        "Ġcounsel": 7794,
        "aska": 7795,
        "ĠStat": 7796,
        "Ġhole": 7797,
        "arsh": 7798,
        "ĠHell": 7799,
        "Ġformal": 7800,
        "Ġ1960": 7801,
        "Ġprinciple": 7802,
        "Ġlosses": 7803,
        "Ġedition": 7804,
        "Ġmagn": 7805,
        "Ġstadium": 7806,
        "Ġtransm": 7807,
        "Ġalgorith": 7808,
        "Ġstun": 7809,
        "Ġgained": 7810,
        "asion": 7811,
        "Ġestablishment": 7812,
        "52": 7813,
        "osexual": 7814,
        "weet": 7815,
        "ĠVR": 7816,
        "Ġtoler": 7817,
        "ĠWH": 7818,
        "ãĢ": 7819,
        "ĠHead": 7820,
        "Ġwheel": 7821,
        "Ġagric": 7822,
        "bell": 7823,
        "Ġbridge": 7824,
        "ca": 7825,
        "Ġuniform": 7826,
        "Ġexception": 7827,
        "eman": 7828,
        "Ġ->": 7829,
        "ĠAnthony": 7830,
        "Ġsynt": 7831,
        "ĠRen": 7832,
        "Ġfoundation": 7833,
        "ounced": 7834,
        "Ġgift": 7835,
        "ĠWhether": 7836,
        "Ġlegend": 7837,
        "mate": 7838,
        "enth": 7839,
        "ĠMarket": 7840,
        "ĠLittle": 7841,
        "Ġplate": 7842,
        "Ġstruggling": 7843,
        "Ġphilosophy": 7844,
        "Ġgenuine": 7845,
        "profit": 7846,
        "ĠGov": 7847,
        "51": 7848,
        "Ġjournalist": 7849,
        "imore": 7850,
        "rative": 7851,
        "auc": 7852,
        "ĠAND": 7853,
        "ĠSat": 7854,
        "Ġcrop": 7855,
        "Ġspark": 7856,
        "Ġindicate": 7857,
        "ĠConference": 7858,
        "Ġrelief": 7859,
        "portion": 7860,
        "Ġheaded": 7861,
        "ĠLy": 7862,
        "Ġbasketball": 7863,
        "à¤": 7864,
        "ĠAdministration": 7865,
        "Ġcontaining": 7866,
        "Ġ46": 7867,
        "ĠPatrick": 7868,
        "ĠRelated": 7869,
        "iel": 7870,
        "Ġ1998": 7871,
        "Ġprofession": 7872,
        "Ġmovements": 7873,
        "Ġairport": 7874,
        "ĠJay": 7875,
        "ĠTri": 7876,
        "Ġuncom": 7877,
        "ĠOnt": 7878,
        "Ġclubs": 7879,
        "Ġsaved": 7880,
        "Ġdoors": 7881,
        "Ġcomponent": 7882,
        "Ġdeliber": 7883,
        "rators": 7884,
        "Ġarrange": 7885,
        "Ġrecognized": 7886,
        "who": 7887,
        "Ġstab": 7888,
        "Ġcha": 7889,
        "idespread": 7890,
        "Ġriver": 7891,
        "ĠMatthew": 7892,
        "Ġproducer": 7893,
        "ĠLink": 7894,
        "ĠON": 7895,
        "Ġbanned": 7896,
        "oured": 7897,
        "Ġneutral": 7898,
        "umer": 7899,
        "ulating": 7900,
        "Ġreduction": 7901,
        "ĠBernie": 7902,
        "Ġepisodes": 7903,
        "etime": 7904,
        "ni": 7905,
        "ystem": 7906,
        "Ġcannabis": 7907,
        "++": 7908,
        "Be": 7909,
        "esy": 7910,
        "Ġachieved": 7911,
        "Ġtag": 7912,
        "lete": 7913,
        "Ġwithdraw": 7914,
        "Ġfootage": 7915,
        "Ġwed": 7916,
        "ĠIce": 7917,
        "ĠDiego": 7918,
        "UL": 7919,
        "ĠAcademy": 7920,
        "Ġliked": 7921,
        "Ġneighb": 7922,
        "Ġdinner": 7923,
        "Ġbacked": 7924,
        "oen": 7925,
        "Ġrely": 7926,
        "ĠFormer": 7927,
        "ĠAp": 7928,
        "ĠUFC": 7929,
        "Ġfarmers": 7930,
        "igen": 7931,
        "Ġentering": 7932,
        "rous": 7933,
        "ĠCentre": 7934,
        "Ġroles": 7935,
        "teen": 7936,
        "Ġhired": 7937,
        "Ġships": 7938,
        "sa": 7939,
        "Ġinterviews": 7940,
        "ĠEmail": 7941,
        "Ġtackle": 7942,
        "ĠABC": 7943,
        "400": 7944,
        "One": 7945,
        "yard": 7946,
        "Ġflaw": 7947,
        "ĠPot": 7948,
        "Ġdescription": 7949,
        "etts": 7950,
        "Ġhang": 7951,
        "53": 7952,
        "erved": 7953,
        "Ġdestruction": 7954,
        "sylv": 7955,
        "burgh": 7956,
        "ĠAle": 7957,
        "Ġconvicted": 7958,
        "ferences": 7959,
        "Ġbeliefs": 7960,
        "Ġ2019": 7961,
        "Ġdelivery": 7962,
        "Ġbarely": 7963,
        "ĠSet": 7964,
        "ĠCurrent": 7965,
        "Ġproven": 7966,
        "Ġwalls": 7967,
        "she": 7968,
        "ĠWalker": 7969,
        "interest": 7970,
        "ĠBattle": 7971,
        "97": 7972,
        "uer": 7973,
        "Ġfinger": 7974,
        "ĠMah": 7975,
        "ĠNAT": 7976,
        "ĠCirc": 7977,
        "Ġstructures": 7978,
        "Ġrestrictions": 7979,
        "uce": 7980,
        "ĠHaving": 7981,
        "ĠConservative": 7982,
        "ĠCameron": 7983,
        "Ġren": 7984,
        "Ġgonna": 7985,
        "Ġforever": 7986,
        "this": 7987,
        "ĠPop": 7988,
        "Ġconvin": 7989,
        "amber": 7990,
        "ĠCommunity": 7991,
        "Ġnominee": 7992,
        "ĠKat": 7993,
        "Getty": 7994,
        "ĠTenn": 7995,
        "Ġchallenging": 7996,
        "Ġdiscrimination": 7997,
        "Ġtechnique": 7998,
        "away": 7999,
        "Ġsmooth": 8000,
        "ĠNOT": 8001,
        "Ġrose": 8002,
        "aching": 8003,
        "ĠEarlier": 8004,
        "ĠKansas": 8005,
        "Ġborrow": 8006,
        "Ġflash": 8007,
        "ked": 8008,
        "Ġintellectual": 8009,
        "Ġocean": 8010,
        "ĠMedical": 8011,
        "CS": 8012,
        "enny": 8013,
        "ĠCook": 8014,
        "ĠDivision": 8015,
        "Ġincent": 8016,
        "Ġrapidly": 8017,
        "ĠXbox": 8018,
        "Ġreaching": 8019,
        "RS": 8020,
        "Ġaver": 8021,
        "Ġexclusive": 8022,
        "ĠGetty": 8023,
        "Ġlanguages": 8024,
        "ĠPennsylv": 8025,
        "Ġretired": 8026,
        "Ġelectronic": 8027,
        "Ġunex": 8028,
        "Man": 8029,
        "ĠTed": 8030,
        "ĠSpring": 8031,
        "ĠAnton": 8032,
        "Ġcontained": 8033,
        "Ġhitting": 8034,
        "Ġrecognition": 8035,
        "olen": 8036,
        "Ġprocessing": 8037,
        "Ġproducing": 8038,
        "ĠBrew": 8039,
        "lessly": 8040,
        "ĠBall": 8041,
        "ĠBeach": 8042,
        "Ġutil": 8043,
        "Ġbath": 8044,
        "ĠPerson": 8045,
        "amsung": 8046,
        "Ġsuggesting": 8047,
        "Ġupset": 8048,
        "Ġcorporations": 8049,
        "Ġnotion": 8050,
        "Ġasks": 8051,
        "ĠChristians": 8052,
        "ĠCost": 8053,
        "usive": 8054,
        "Ġwidespread": 8055,
        "96": 8056,
        "Ġindicated": 8057,
        "BO": 8058,
        "Ġprogressive": 8059,
        "ĠCore": 8060,
        "iti": 8061,
        "Ġillness": 8062,
        "Ġcollapse": 8063,
        "ologists": 8064,
        "Ġbranch": 8065,
        "rical": 8066,
        "ĠArabia": 8067,
        "ĠTown": 8068,
        "Ġfriendly": 8069,
        "Ġham": 8070,
        "Ġequally": 8071,
        "appy": 8072,
        "Ġbegun": 8073,
        "riers": 8074,
        "ĠAction": 8075,
        "Ġperpet": 8076,
        "Ġmo": 8077,
        "ĠAud": 8078,
        "Ġinvent": 8079,
        "Ġhide": 8080,
        "ĠJun": 8081,
        "rik": 8082,
        "ĠCBS": 8083,
        "Ġshit": 8084,
        "Ġsmoke": 8085,
        "engers": 8086,
        "Ġ~": 8087,
        "Ġloyal": 8088,
        "veland": 8089,
        "Ġrepresentative": 8090,
        "ouver": 8091,
        "Ġgrass": 8092,
        "udes": 8093,
        "ĠHD": 8094,
        "ĠHoward": 8095,
        "abinet": 8096,
        "Ġcontribute": 8097,
        "then": 8098,
        "Ġbra": 8099,
        "onc": 8100,
        "ĠAlbert": 8101,
        "igrant": 8102,
        "ĠRoss": 8103,
        "ami": 8104,
        "Ġassociation": 8105,
        "ĠPhilipp": 8106,
        "Ġreviews": 8107,
        "ĠPennsylvania": 8108,
        "ĠFamily": 8109,
        "uma": 8110,
        "page": 8111,
        "Ġwelf": 8112,
        "arrass": 8113,
        "Ġsugar": 8114,
        "jo": 8115,
        "achus": 8116,
        "Ġhardly": 8117,
        "Ġcampaigns": 8118,
        "ĠEnvironment": 8119,
        "ĠSanta": 8120,
        "Ġimprovements": 8121,
        "Ġrobot": 8122,
        "fr": 8123,
        "ĠLatin": 8124,
        "Ġlistening": 8125,
        "Ġethnic": 8126,
        "isp": 8127,
        "Ġfrag": 8128,
        "Ġjury": 8129,
        "Ġexceed": 8130,
        "Ġnormally": 8131,
        "ĠSquare": 8132,
        "Ġwebsites": 8133,
        "gener": 8134,
        "Ġsettlement": 8135,
        "Ġprepare": 8136,
        "sels": 8137,
        "Ġpractical": 8138,
        "Ġtail": 8139,
        "Ġthrown": 8140,
        "Ġreducing": 8141,
        "uties": 8142,
        "Ġwelfare": 8143,
        "ĠHo": 8144,
        "Ġbail": 8145,
        "Ġunclear": 8146,
        "Ġminds": 8147,
        "Ġoverwhelming": 8148,
        "ione": 8149,
        "owing": 8150,
        "EP": 8151,
        "ĠMinistry": 8152,
        "Ġfiscal": 8153,
        "Ġframework": 8154,
        "Ġcomplaints": 8155,
        "ĠNSA": 8156,
        "âĢĲ": 8157,
        "ĠConnect": 8158,
        "Ġfeaturing": 8159,
        "Ġscream": 8160,
        "Ġinitiative": 8161,
        "pload": 8162,
        "cription": 8163,
        "Ġdeeper": 8164,
        "ĠBrother": 8165,
        "ĠYeah": 8166,
        "ĠAllen": 8167,
        "Ġconstitutional": 8168,
        "Ġvary": 8169,
        "Ġterrorists": 8170,
        "ĠBa": 8171,
        "ĠBaltimore": 8172,
        "Ġsensitive": 8173,
        "rolled": 8174,
        "PG": 8175,
        "ĠLater": 8176,
        "ĠWas": 8177,
        "Ġrecover": 8178,
        "lad": 8179,
        "ĠMuseum": 8180,
        "umes": 8181,
        "een": 8182,
        "Ġinvolvement": 8183,
        "Ġexternal": 8184,
        "ho": 8185,
        "ĠStone": 8186,
        "ĠMain": 8187,
        "ĠForm": 8188,
        "ĠLim": 8189,
        "87": 8190,
        "tering": 8191,
        "Ġcarefully": 8192,
        "ancouver": 8193,
        "Ġrespectively": 8194,
        "usted": 8195,
        "Ġlists": 8196,
        "allel": 8197,
        "ĠRoy": 8198,
        "Ġconvinced": 8199,
        "Ġracist": 8200,
        "ĠBon": 8201,
        "heast": 8202,
        "Ġstatistics": 8203,
        "Ġelig": 8204,
        "Ġstrategic": 8205,
        "Ġvital": 8206,
        "ĠGolden": 8207,
        "imm": 8208,
        "Ġconnections": 8209,
        "Ġtickets": 8210,
        "Pe": 8211,
        "Ġdeputy": 8212,
        "ĠAnderson": 8213,
        "Ġwars": 8214,
        "Ġcos": 8215,
        "ĠGun": 8216,
        "Ġviewers": 8217,
        "Ġscores": 8218,
        "Ġmenu": 8219,
        "Ġscholars": 8220,
        "fare": 8221,
        "ĠKeep": 8222,
        "ĠAustin": 8223,
        "Ġ_": 8224,
        "Ġarray": 8225,
        "Ġjoining": 8226,
        "ĠBroad": 8227,
        "ĠSamsung": 8228,
        "Ġ1996": 8229,
        "Ġfiction": 8230,
        "Ġinvestigate": 8231,
        "Ġindependence": 8232,
        "Ġcitizen": 8233,
        "oding": 8234,
        "Ġscreens": 8235,
        "bn": 8236,
        "ĠIII": 8237,
        "ouch": 8238,
        "Ġnoise": 8239,
        "Ġfantasy": 8240,
        "Ġanybody": 8241,
        "rator": 8242,
        "achusetts": 8243,
        "Ġwine": 8244,
        "ref": 8245,
        "ĠLewis": 8246,
        "Ġbehaviour": 8247,
        "Ġinvited": 8248,
        "Ġunemployment": 8249,
        "mal": 8250,
        "Ġdevast": 8251,
        "Ġhook": 8252,
        "Ġcollective": 8253,
        "bec": 8254,
        "Ġownership": 8255,
        "ĠiP": 8256,
        "wo": 8257,
        "Ġroads": 8258,
        "ĠControl": 8259,
        "Ġluck": 8260,
        "ĠChair": 8261,
        "AG": 8262,
        "Ġfab": 8263,
        "senal": 8264,
        "Ġdefine": 8265,
        "Ġfailing": 8266,
        "worth": 8267,
        "ĠSix": 8268,
        "ĠHarris": 8269,
        "Ġdynamic": 8270,
        "nedy": 8271,
        "Ġlobby": 8272,
        "Ġovert": 8273,
        "Ġwages": 8274,
        "Ġpeak": 8275,
        "Ġgenetic": 8276,
        "ĠPent": 8277,
        "from": 8278,
        "85": 8279,
        "Ġcomprehens": 8280,
        "Ġmilk": 8281,
        "________________": 8282,
        "Ġraw": 8283,
        "aka": 8284,
        "ĠPlus": 8285,
        "Ġtrained": 8286,
        "Ġgathered": 8287,
        "RC": 8288,
        "Ġremem": 8289,
        "ĠGreece": 8290,
        "ĠUr": 8291,
        "Ġtheat": 8292,
        "ĠSony": 8293,
        "Ġcaptain": 8294,
        "ĠQueen": 8295,
        "icking": 8296,
        "anna": 8297,
        "ĠUpdate": 8298,
        "Ġsubjects": 8299,
        "Im": 8300,
        "Ġ52": 8301,
        "Ġimplemented": 8302,
        "Ġsymptoms": 8303,
        "âĢĶâĢĶâĢĶâĢĶ": 8304,
        "ĠFreedom": 8305,
        "Ġultimate": 8306,
        "ifest": 8307,
        "Ġraces": 8308,
        "Ġtransgender": 8309,
        "ĠExpl": 8310,
        "Ġexpanded": 8311,
        "Ġincorpor": 8312,
        "Ġtemporary": 8313,
        "Ġawareness": 8314,
        "ĠCleveland": 8315,
        "Ġprosec": 8316,
        "ĠPass": 8317,
        "Ġalien": 8318,
        "Ġneighbour": 8319,
        "Ġlegs": 8320,
        "Ġdiscovery": 8321,
        "ĠDave": 8322,
        "ĠMORE": 8323,
        "Ġhandful": 8324,
        "Ġdemocratic": 8325,
        "Ġkm": 8326,
        "intendo": 8327,
        "dem": 8328,
        "hour": 8329,
        "Ġscandal": 8330,
        "ecut": 8331,
        "aning": 8332,
        "Ġinject": 8333,
        "Ġdisagree": 8334,
        "Ġcasual": 8335,
        "Ġreprodu": 8336,
        "ĠExper": 8337,
        "ĠLiver": 8338,
        "Ġsoph": 8339,
        "Ġremarks": 8340,
        "ĠDeath": 8341,
        "ĠMassachusetts": 8342,
        "Ġtouchdown": 8343,
        "Ġfears": 8344,
        "ĠJam": 8345,
        "Ġlicens": 8346,
        "icket": 8347,
        "Ġcontroversy": 8348,
        "ĠAst": 8349,
        "Ġserves": 8350,
        "ĠColumbia": 8351,
        "phones": 8352,
        "ĠVancouver": 8353,
        "ĠGuardian": 8354,
        "Ġanger": 8355,
        "bi": 8356,
        "iversary": 8357,
        "Ġgear": 8358,
        "Ġtip": 8359,
        "cific": 8360,
        "esh": 8361,
        "Ġ1997": 8362,
        "Ġsuffer": 8363,
        "âĪ": 8364,
        "ĠBudd": 8365,
        "thon": 8366,
        "ĠEngine": 8367,
        "Ġstupid": 8368,
        "case": 8369,
        "Ġversus": 8370,
        "ĠPo": 8371,
        "ĠIranian": 8372,
        "ĠProv": 8373,
        "Ġheading": 8374,
        "ihad": 8375,
        "With": 8376,
        "yer": 8377,
        "ĠBad": 8378,
        "Ġlayer": 8379,
        "Ġliquid": 8380,
        "Ġrecommended": 8381,
        "osit": 8382,
        "inois": 8383,
        "Every": 8384,
        "Ġregulation": 8385,
        "Ġreven": 8386,
        "Ġdiscussions": 8387,
        "Ġingred": 8388,
        "Ġreferring": 8389,
        "mad": 8390,
        "pat": 8391,
        "Ġattempting": 8392,
        "Ġtasks": 8393,
        "89": 8394,
        "ĠSus": 8395,
        "ĠRevolution": 8396,
        "Ġignore": 8397,
        "Ġhypot": 8398,
        "Ġsalary": 8399,
        "ĠPitt": 8400,
        "Ġattacking": 8401,
        "Ġsettings": 8402,
        "Ġsamples": 8403,
        "ĠLA": 8404,
        "Ġvisitors": 8405,
        "ĠLow": 8406,
        "Ġeastern": 8407,
        "ĠAdv": 8408,
        "ĠMarvel": 8409,
        "Ġviewed": 8410,
        "ĠNorm": 8411,
        "ĠAge": 8412,
        "Ġresource": 8413,
        "Ġpoly": 8414,
        "Ġsin": 8415,
        "Ġattached": 8416,
        "ĠChel": 8417,
        "Ġenormous": 8418,
        "FF": 8419,
        "ĠFall": 8420,
        "ĠDesign": 8421,
        "uros": 8422,
        "Ġentertainment": 8423,
        "Ġrural": 8424,
        "Ġplatforms": 8425,
        "Ġestimate": 8426,
        "ĠBang": 8427,
        "Ġregister": 8428,
        "Ġmos": 8429,
        "including": 8430,
        "stract": 8431,
        "Ġextend": 8432,
        "mary": 8433,
        "Ġ51": 8434,
        "Ġactors": 8435,
        "ĠHop": 8436,
        "ĠKennedy": 8437,
        "Ġlogic": 8438,
        "Ġtone": 8439,
        "ĠiOS": 8440,
        "arry": 8441,
        "Ġtestim": 8442,
        "Ġaccus": 8443,
        "Ġimprovement": 8444,
        "ictions": 8445,
        "Ġadmit": 8446,
        "Ġpublication": 8447,
        "Ġpurchased": 8448,
        "Ġhumanity": 8449,
        "ðŁ": 8450,
        "Ġsorry": 8451,
        "Ġfoss": 8452,
        "Ġsuspected": 8453,
        "otype": 8454,
        "ommod": 8455,
        "ĠCopy": 8456,
        "'.": 8457,
        "Ġaffairs": 8458,
        "ĠOtt": 8459,
        "Ġdramatic": 8460,
        "raph": 8461,
        "oval": 8462,
        "UN": 8463,
        "Ġspaces": 8464,
        "ĠUC": 8465,
        "ĠStadium": 8466,
        "Ġdispl": 8467,
        "ĠâĢĿ": 8468,
        "PM": 8469,
        "ĠProp": 8470,
        "ĠCommon": 8471,
        "Ġforest": 8472,
        "aying": 8473,
        "geon": 8474,
        "itionally": 8475,
        "Ġreferend": 8476,
        "ĠLine": 8477,
        "ĠLyn": 8478,
        "Ġrecall": 8479,
        "Ġfactory": 8480,
        "Ġinflation": 8481,
        "Ġsubstantial": 8482,
        "Ġtweeted": 8483,
        "Ġinvolves": 8484,
        "dri": 8485,
        "Ġgrounds": 8486,
        "Ġmedicine": 8487,
        "Ġrook": 8488,
        "Ġhorse": 8489,
        "Ġgam": 8490,
        "Ġmonitor": 8491,
        "xit": 8492,
        "Ġembarrass": 8493,
        "Ġcivilians": 8494,
        "Ġbrothers": 8495,
        "ĠHospital": 8496,
        "Ġbrill": 8497,
        "Ġstake": 8498,
        "ĠVegas": 8499,
        "inch": 8500,
        "ĠJustin": 8501,
        "EG": 8502,
        "Ġmad": 8503,
        "ĠSure": 8504,
        "\".[": 8505,
        "Ġlegitimate": 8506,
        "ultural": 8507,
        "RI": 8508,
        "Ġinvestigating": 8509,
        "ĠMill": 8510,
        "Ġfallen": 8511,
        "ĠBuff": 8512,
        "Ġconsole": 8513,
        "ĠShort": 8514,
        "Ġcoaches": 8515,
        "iability": 8516,
        "Ġopinions": 8517,
        "Ġranked": 8518,
        "arms": 8519,
        "Ġfulf": 8520,
        "acon": 8521,
        "ĠâĤ¬": 8522,
        "Ġsuspended": 8523,
        "Ġneck": 8524,
        "repre": 8525,
        "Ġje": 8526,
        "Ġabsence": 8527,
        "cience": 8528,
        "Ġholiday": 8529,
        "ĠTro": 8530,
        "ĠSel": 8531,
        "Ġcovers": 8532,
        "wered": 8533,
[...]
